/**
  ******************************************************************************
  * @file    dummynn_data_params.c
  * @author  AST Embedded Analytics Research Platform
  * @date    Mon Jan  8 17:20:41 2024
  * @brief   AI Tool Automatic Code Generator for Embedded NN computing
  ******************************************************************************
  * Copyright (c) 2024 STMicroelectronics.
  * All rights reserved.
  *
  * This software is licensed under terms that can be found in the LICENSE file
  * in the root directory of this software component.
  * If no LICENSE file comes with this software, it is provided AS-IS.
  ******************************************************************************
  */

#include "dummynn_data_params.h"


/**  Activations Section  ****************************************************/
ai_handle g_dummynn_activations_table[1 + 2] = {
  AI_HANDLE_PTR(AI_MAGIC_MARKER),
  AI_HANDLE_PTR(NULL),
  AI_HANDLE_PTR(AI_MAGIC_MARKER),
};




/**  Weights Section  ********************************************************/
AI_ALIGNED(32)
const ai_u64 s_dummynn_weights_array_u64[4613] = {
  0xbabba60aba2c8948U, 0xbbe1eb273b698419U, 0xba096267bbab1ebaU, 0xbb5f9232ba9676f2U,
  0xba3c2794bbf9748aU, 0xbb8525bdbb0f3921U, 0xbb3b2d2a39fdd47eU, 0xbb30c830bb562063U,
  0xbb1623d8bdadb147U, 0xbbc51a743b26c9ddU, 0xae13e125bafd4ae8U, 0xbc63b317bb365bdeU,
  0xbab5159fbaa3b24aU, 0x3ac326bdbac2a471U, 0xbb78fe97bb42e8caU, 0xbb9aee47bb7aafa3U,
  0xbd639a5dbcdb1c78U, 0xbb1e6111bb3f4154U, 0xbdcdecbcbb303b3aU, 0xb92ed0dfbbb59a85U,
  0xbac078ec373dc78cU, 0xbb801e70bdfb7946U, 0xb9aad055bb0ec699U, 0xbb93c1df3a957603U,
  0x3ac86d70baf9766fU, 0x21bdb84424016826U, 0x3545b0033b31a593U, 0xa5a740613a01950aU,
  0xa809e227a736ebdeU, 0xa98f900aa5b01763U, 0xbc046c76ad348b80U, 0xa77731d6361ba1adU,
  0xa1acac80a7e91224U, 0xa6188b8fbd20c20fU, 0x2aab70f238798006U, 0x23ebeac82744ad34U,
  0xbd0dc52628818a50U, 0x316ec58c3ac25e93U, 0xbac99c28a97feeafU, 0xaee181aaa444a42eU,
  0xa8c669a8b191106cU, 0xbcf87b0abca11de9U, 0x337dc8fe25b25e41U, 0x3cf9eba826c36da4U,
  0x2604836132780e05U, 0xa589417a3373fa3dU, 0xa80da09b3cd0cd5cU, 0xaa0dabcea983660eU,
  0xabb71eefb5062424U, 0xb92e2570a72df42cU, 0xa02bb659243519c7U, 0x364f54d63b247b48U,
  0xa6bbd933b9f4056bU, 0x2cbe1223a99094beU, 0x26a2e07eab002979U, 0xbaedb63eab21994dU,
  0xa841a4f736835017U, 0x23a5a5792a40fa31U, 0xa4f708113cccf857U, 0x2c17265838727146U,
  0xa5247a85a8f21fdcU, 0x3cdbddeca66b7791U, 0x3025ec263ae7a5daU, 0x3bbba2742906127cU,
  0x30f104d6a3e9f790U, 0xa98e76a8b1a65bc7U, 0x3c2722693c36d438U, 0x33a89924a2590f1bU,
  0xbc522736a30d855bU, 0x247ff6fe339a9f09U, 0xa617d3c7354aeb22U, 0xaa2c71debc2d1790U,
  0x2f863c532f2f88e3U, 0xad999b7db53325e4U, 0xba5ded5fa8ac1eb0U, 0x28ac4b15a3158f16U,
  0xad2ec7dbae18dc2cU, 0xa70bc6302d20945eU, 0x2c8a6a3ca593f521U, 0x2c1a1f8127949a09U,
  0xadc7501eaae7d481U, 0x26d38bcaac7fef40U, 0x2432817f2b40f34cU, 0xa5c3af10b13a9c61U,
  0xaa12df4ca70c8a3aU, 0x248b8f28a7bceb8dU, 0xacbd5e302457b1a6U, 0xaa7e2b7ca41e8b22U,
  0x24a91212aa0682c3U, 0xa8c083e026245cd8U, 0xaa63cd26acbfcca9U, 0xaf063303abe08b6bU,
  0xacb8d3552621e014U, 0xad1540d226278990U, 0x968bea9eaee71576U, 0xa5de44ea9d0222eaU,
  0xa499d4d0b07f6424U, 0xaa76fba6aba9a7e3U, 0x28200c5ea937775cU, 0x2b83753d279d183eU,
  0xa303afce2302aa29U, 0xafe9e86832851a7bU, 0xa5a98623b1773e64U, 0xade32922a8b29b62U,
  0xaad838d8a8f045c3U, 0xb0cd5b072ac64f7cU, 0xab95dc4a2c43e998U, 0xa31028fe243c0189U,
  0xa4043b95ade0a55bU, 0x2aff22c725c527a6U, 0x9d09030c25b5f276U, 0x26f06260a437034fU,
  0xb02d503ca45e6fa6U, 0x23ffa28425954781U, 0xa9bc778e286830ceU, 0x284fec5d294d5a0cU,
  0xb0173cf7ae5d578eU, 0xadff65272540aaabU, 0xad09ac9722bd33fcU, 0xa006e058b0ae9e07U,
  0xa56ff8e29cba5487U, 0x2a8431e8aebd1530U, 0xaf95f6d32fe650d1U, 0xab5d86312c550a12U,
  0xa8536b972b375366U, 0x25b81d78250712b8U, 0x3210e87030c4829dU, 0xa5ab783abb3b6211U,
  0xac6b7d4827cbf700U, 0xa88eb33e2ad17994U, 0xb92739a42e48398cU, 0x26cbd06eaeff5064U,
  0x229157f8a5692f5bU, 0xa51eb8ceba06a834U, 0xaa0599042d3b64aaU, 0xa1ef3f72a615614cU,
  0xba5c4b68237de0e7U, 0x306c13ba2d8fb62aU, 0x2dd35674a71a1397U, 0x2c2b625da555d1aaU,
  0xaa160ea9b2080df2U, 0xba3e1d8c392d5bacU, 0xb188177025aea944U, 0xb9c3ffe822e174edU,
  0x232bd013312d2de1U, 0xa6046994ad8b1b69U, 0xa83af172bb438520U, 0x309e6dc42edf212fU,
  0xa999de91b5b6c0e7U, 0xb928be3029315344U, 0x23d70c37240f9f7cU, 0x345a46263abe15daU,
  0x2674a1dd3b8826f9U, 0xad72786bac18001aU, 0xa9e13308aa0f1c29U, 0x3cff158ead344eabU,
  0xab1924003579230aU, 0xa707657e28417b86U, 0xa4a9e4a03d39b195U, 0x2c75b1b038ce4d03U,
  0xa4c639c128834656U, 0x3d2c806ca62a5ca7U, 0xad7072ba3ad682c7U, 0x39b189b92885e526U,
  0xb26c5b88a50dcaf5U, 0x2a90b022b36ab7dcU, 0x3d2968e73d38a563U, 0xabd494c822965333U,
  0xbd1ed7d8a7b4e92cU, 0xa36f7881ae0d1d02U, 0xa51c0e84357f5372U, 0xa9e8661ebce9f783U,
  0xace38c8daacdf73aU, 0xad5097feb48c686eU, 0xbad695b3ac1b1f41U, 0x9f2c4f7d24ce7844U,
  0x324d56a839e705f4U, 0xa667b866bb50d31fU, 0x2a2458eca65b3a33U, 0xa79b69aa26f35efaU,
  0x3c285c4eabb5c43bU, 0x280b05dcb61ebe39U, 0xa34ca5c5a6b2018fU, 0xa5989b8c3af5f03bU,
  0xab3888ed39121099U, 0xa6cd56f2a7161352U, 0x3c3ed7bd23299169U, 0xae8edfeebbbf1641U,
  0x3b8cde45a714c625U, 0xa75eff0623bfda92U, 0xa97beaf4b09bebd9U, 0x3c40b283bc0a54f6U,
  0xad316d66a1738c39U, 0xbcab9c9f23368848U, 0x249790532c143da7U, 0xa5552b4ab4dbbe80U,
  0xa2849066bc56c2cfU, 0xae23d713add1b842U, 0xaa7237c333b0f286U, 0xb8a7e420a415f047U,
  0x27f90ef722dda8deU, 0x33621ffeba860fe4U, 0xa7bdf30d3ca10f9aU, 0xac525f5128d073e8U,
  0x2b07e72baadf006eU, 0x3cf16c76aeafd4d3U, 0x21204c1c368576d2U, 0x20dedd0ca6b03dc0U,
  0xa681af963cd0535dU, 0x2ae829b63828e307U, 0x1dcc713128cfba11U, 0x3cefa0c0a39badfdU,
  0x3256a5b33b779faaU, 0x3ae498b0a69671f5U, 0x2f12e10b24583c6eU, 0xab3fd956b5b12129U,
  0x3cc039543cc1788cU, 0xb2e85355a24fbfb8U, 0xbd0d065ca7d80d3aU, 0x18015d943346b71fU,
  0xa57e3a81352b1958U, 0xa403f23dbcad5760U, 0x3195fd4f30b673f0U, 0xacd8fb1cb6c62f1eU,
  0xb929c383a58d4df6U, 0xa92c9c542913a91fU, 0xaadb8ce122bc81fdU, 0x295bcf5ba3dbb2b0U,
  0x271b43e1a2a65423U, 0xa39117da25a4c564U, 0xa71300a3aa19a0bbU, 0xa8cb6db3a780b900U,
  0x27420af9a6564c64U, 0x9e425462a3c4089cU, 0x281571efa35c97b3U, 0x9ae0dcc4a28292b1U,
  0xa31258582438c6c7U, 0xa0c16dd4a2bd4198U, 0x20e61ca1a3973149U, 0x2566a9ce2a60059bU,
  0xa55d2eb4213ed38aU, 0x24ce2a2ba6b652ccU, 0xa36fb520a70d69c6U, 0xa22a5e551f2b65fcU,
  0x191879f0202fb244U, 0x1efd5cf21997573aU, 0xa1625980a2199642U, 0x253fbe9baac2db7aU,
  0x218bf1c2a77accf8U, 0xa3a0f494a0a5b9edU, 0x283598f22699e81eU, 0xb5896def3af5734bU,
  0xa8a5270c3c93b190U, 0x2c0ce18e2c30cb44U, 0x28c89396a9333718U, 0x3cf34199adeb4dd1U,
  0xaacc09303655f3f3U, 0xa4170306aa06bd50U, 0xa4bfe9b33cfff4d7U, 0xacdb665839f042d8U,
  0x20c666bca5d5ab36U, 0x3d462c2e236c6134U, 0x2e5e2e423be87458U, 0x392360fea8a24a24U,
  0xa90bfd502840dfa6U, 0xaa083598b63dee9fU, 0x3d07c6843c96e9dfU, 0xad88880422717738U,
  0xbc877e12228fa71eU, 0x9d4a13e82e0325aaU, 0x25c74aa3357bcbf8U, 0xaa9eb054bc4cf9a1U,
  0x2dbbe4832c298568U, 0x2cf7100735a4b8aeU, 0x3a8cd417ab681939U, 0xa53375bd24dfe5adU,
  0xb56f6ec43aa87598U, 0x28385959bcbe640bU, 0x2e9629c42cac123dU, 0xaa5c084aaba96084U,
  0xbcf7dd3c2c894447U, 0xaa8afa603616245cU, 0x24203cdea87bcdb1U, 0x244cd8893d0c6ac2U,
  0xaaced682b8e3ae9cU, 0x253829ca294d5a5fU, 0xbc0f981922e04fa9U, 0xb05c53843ba80f3eU,
  0xb95333d4297b73a9U, 0x300db47d27aeed58U, 0x26ddb9eeb3b1e406U, 0x3c3dbc5abc242f02U,
  0x33167518232bb65eU, 0x3d840fc12706b8f4U, 0xa6a11a99b2ebc85aU, 0x25d54dc83589aa9dU,
  0xa85d02083d5c5193U, 0xaf428397af33643eU, 0x2da6593936641db0U, 0xbb7201222b0e3384U,
  0x1effcd1aa110c684U, 0xa6080bcfa5033e83U, 0xa589f9eaa6628f71U, 0xa66745a323165a62U,
  0xa68a842fa50b5fd9U, 0xa426b439a2cb2af8U, 0xa26a7db4a57e655fU, 0x9f442507a4d41533U,
  0xa373c6cf2482a497U, 0xa34f6be3230d3091U, 0xa6b75dd821d96b71U, 0xa6c324f9182aba55U,
  0xa449d18ca6b42c30U, 0x9a0269b3a61c095aU, 0xa6a757a2a3c398e2U, 0x1ba8d5e8a6a3b728U,
  0xa612f3b5a58007c9U, 0xa6d61daa1c1da7bcU, 0x1b09ed1b9a6fe4a4U, 0x2625cbf0a579ef83U,
  0xa3f545f0a58a5ed8U, 0xa2e9fb18a33cd348U, 0x229f2c37a5ec9dbaU, 0xa29e492ea6f61e0cU,
  0xa5c22b26a24b737bU, 0xa0f5d2d0a6b54c41U, 0xac453e31ae546f79U, 0x26315bf6ad2bdc77U,
  0xa981b221aa918062U, 0x2a853029aa113a81U, 0x28fdae4c2ef3b755U, 0x2c80d1bcaae40040U,
  0xa207cb93a8061dfbU, 0xa6774726ab726dd4U, 0x2a05570f2a75ce57U, 0x9726fc3fa74ab126U,
  0x25e1e9f7a4644a09U, 0xad7b7463a47b5934U, 0xa44d4f37a89aaf58U, 0xa8853ac829cd502dU,
  0x282520fda5d82666U, 0xad617dceace0beebU, 0x2c3c4dd4a3b4a003U, 0xadc0588fa2e97fbcU,
  0x2490649fae04d63cU, 0xa65685981ea520f4U, 0xa9335f48a982406bU, 0xac9ff875a93d32d3U,
  0xaa63912eab9580dcU, 0x263034c4aa520616U, 0xa1c4d82e298a22daU, 0x2faed8e3af414789U,
  0x286ec782b0739c7dU, 0xad782cd2281b2f72U, 0xa751b5722a06a763U, 0xb02e6b87aa1806ffU,
  0x274690cfac17c828U, 0x242eb13ba98b0f4aU, 0xa454fe06b08e2e97U, 0xabdc0cb4a498ca69U,
  0x9ffe105a21f80ea0U, 0xab8a87eda9f61bf4U, 0xaf4b8844a2e51629U, 0xa45bf58ba8044823U,
  0x2da79c8d23ff7c33U, 0xaaac88c22bbc51d1U, 0xae7e2c8cae9553faU, 0xaea21cdda2acf790U,
  0xb2deff7da4b6e3d0U, 0x1f0317de306137e7U, 0x283ec2d8a7117756U, 0x28200282b0d6ffc9U,
  0x2d82c2e72b8c4693U, 0x29d3eff62843fd6fU, 0xa69bea8fa559d901U, 0x22787e64a866709aU,
  0xb53207b43b136db3U, 0xa6ca5a3fbb8ae52aU, 0x2982a4d6a6a96431U, 0xab14d233a7f6e23cU,
  0x3c53d8482a980194U, 0xa8b6b43db58d7939U, 0xa4a21314257b1e1bU, 0xa52275ad3cd6836cU,
  0x2981f70739f5a82cU, 0x9f57d32928643242U, 0x3c86044323d31790U, 0xb06580ee3bc88681U,
  0x3b217ce128130423U, 0xa8fb1e2ea5f4ff8bU, 0x29a1213eb516d6bdU, 0x3d1ae8963c64378dU,
  0x3320eaa0a781aadeU, 0xba7b349fa18e5a94U, 0xa09c25ec321c7e98U, 0x291142d734b4ea9eU,
  0xa43572b03ae61aeaU, 0xaa25a147aa337d6aU, 0x2ca3288ab40eb26cU, 0xbaaacf92a40a13caU,
  0x1e7c6c3523aa5878U, 0x3469d1ec3ac1fbfaU, 0x26ad3e3a3c2cf07dU, 0x248061a9a5a26354U,
  0xa7d9d7b81ed15e07U, 0xbbc049d4acf6801dU, 0xa3973762b6219896U, 0x19e5a22d277b97f6U,
  0x20541bba3d3aa4e1U, 0x28ec00b0b978c084U, 0x1b22238b28e9b8b9U, 0xbb82d3f228a432ceU,
  0xb1d33cd5bb0b0de3U, 0x3a2b805229157a16U, 0xb04f66ec200dca32U, 0xa2791f4e33adb6c1U,
  0x3cf6a9173c86c9efU, 0x33224e1fa746f51bU, 0x3cb6c9e3a695bfb7U, 0x9a9e277c32a6e2ceU,
  0xa6881e4a3492c6eeU, 0x9e587f3f3d30b64dU, 0xa8315783a83825c2U, 0x2d30a942b449ef00U,
  0xba889ae99f53b43fU, 0xa480f1c02a4cadf4U, 0xaeb82ab6b00898a2U, 0xa6535a82b5b6eaa5U,
  0xae508559ab3fd71eU, 0x269ba32f2c8527ffU, 0xb660e7082d13254dU, 0x2cfe860eac5bb7faU,
  0xa71c9f6fa785250aU, 0xa53c1eb4b50377c8U, 0x2ae5f404a4c734abU, 0x99ce26baa497c4adU,
  0xb957174a292a149dU, 0xaa76e3caa3d2252aU, 0xa87b273fa93d03c4U, 0x2f1fee5f25e6b8f0U,
  0xa862098ea9f32a0aU, 0xb7549e4832b103f9U, 0xa72c5a2e226f09e6U, 0xb8ff8d282788f8f1U,
  0x1ed120cface3367dU, 0xa5af32db9a8e7b37U, 0xab127c41ba34052cU, 0xa83dc4772b4cebe0U,
  0xac13adc3b732b570U, 0x28f3b2f6abf6553fU, 0xa587eb63a3719d52U, 0xb5320d09ba0cf651U,
  0xa64e2ef5bbf82128U, 0xa742f4efa9e1aaa6U, 0x275c6e5ea950c15cU, 0xbcbff0272b447afeU,
  0xaa171d26b5f2d247U, 0x2887f839a7b4054aU, 0xa6095c163d194d52U, 0xaa0017c0b8bbdac2U,
  0xa646714ea90bd753U, 0xbc6c84aa271cff20U, 0x32f17c14babda1f3U, 0xbb97f6dba8e4132dU,
  0xb0c4e49425880af0U, 0x2a3f2daa3430e9bdU, 0x3d012a843c99e575U, 0x33c1b71d2a0966b5U,
  0x3c9f3e0aa2f4c57fU, 0xa252febe33c750fbU, 0x26cc9c9635a74405U, 0x2a1ee5ff3bf8cadbU,
  0x2bd5ee152cbdb92cU, 0x2ce5c7883527426fU, 0xbb77db18aa8106e8U, 0xa0bef48e2a8eb885U,
  0x331f3a3dba55add0U, 0x2860d3893bb54fc2U, 0x2b2c9de528b89851U, 0x2b1148c82a85f9a6U,
  0x3c4977d9ae8a5a54U, 0xa5c35c5e368cc016U, 0x251e13d2ac73830aU, 0xa53913e03c024ff1U,
  0xa9e8a493b8088ef1U, 0x9f1a802027909b6dU, 0x3ca1a0d8a58ccc9aU, 0x31ea41ac3c00e833U,
  0xba8d26a4a788eac0U, 0xad0fbaaea63efeb9U, 0xab779e9d362e4aebU, 0x3c483c1a3cb01df8U,
  0xb3202d5822760c5bU, 0xbce3ab3da402bf32U, 0x1bf74f6f328e511eU, 0xa678793f35805140U,
  0xa3f01479bd081a02U, 0x3153dee530d3b970U, 0xaaa82d2bb59213daU, 0xb993069ba5587f8fU,
  0xa1fc9dcaa87364d2U, 0xb4f6d2d5b98f7a0aU, 0x290e773f3d2c556dU, 0xa78adf68a6efac70U,
  0xa91634e1a97d0ae9U, 0x3cda76abaa84a443U, 0x283afe3734132086U, 0xa41b4befa837a6f7U,
  0xa53b8d263d12b5b5U, 0xa7244666b92c2072U, 0x9edc3eafa86cae78U, 0x3d4f0fb12248ae20U,
  0x32985bf73acd51e8U, 0x3c1c9be828b5a302U, 0x313f52ba29db55d6U, 0xa49751d9b36e4fa5U,
  0x3d820b4a3cb6f749U, 0x33bcb0cd24335c98U, 0xbc42931c256892afU, 0xa087fa6bb26e85bbU,
  0xa6335802b44e1a5eU, 0xa4ae7ed1bbe3dcf8U, 0xa922ee8b290e252aU, 0xad9accc4b3152394U,
  0xb9d703ab28041a8aU, 0x243371e0a7bdbb49U, 0xadf46382ac8420a5U, 0x26d0ea04aec916d6U,
  0xaaba04df2c82db18U, 0x27365519aa1f317aU, 0xb0a2d7fb2ceb2274U, 0xaa3ac022aa1bd9e4U,
  0xa351bed6a6984c31U, 0xa45cd664ad628468U, 0xa93a80c426f0d6ffU, 0x1898285929de43baU,
  0x259e5573a58d4e16U, 0xada0a1ada6f8f171U, 0x21b08339a383f9a7U, 0xac244fe526092df0U,
  0x2508d907a88eb4b4U, 0xad684e58aba9dfa9U, 0xaa8a219622a17cf9U, 0xad3d61a22312eb5cU,
  0x22031de0aacf29c0U, 0xa435acdaa529a604U, 0xaa76d787aa24aa47U, 0xad0a2365ac3c8c12U,
  0xa9af2e70abd37605U, 0xa6dce8d0aae8924eU, 0xa095130ca722007fU, 0x2f017611babc9533U,
  0x266076b2bc0ec7a7U, 0xac27d5f2aacba34fU, 0xaa27f9d0aa114b4fU, 0xbad57c302c9aaca0U,
  0xaa38cd8135ad9241U, 0x23eab29f2b736fe0U, 0x2535fe10bccd786bU, 0x2a7503f439ac03f2U,
  0xa0002e4ca6c03cc6U, 0x3b5da998a82ec847U, 0xadcc7d5f3bbc5e39U, 0xba93f6d6a90a22a1U,
  0xaa03ba5fa5824689U, 0x2846a06c2dabbd28U, 0xbce9d65a3bcfeb67U, 0x2c1d5c0c23679531U,
  0x3bd88cb8244be884U, 0xa4f81cddae944586U, 0x25c8327b34edeb0fU, 0xa8ad94433bc4153eU,
  0xac20dedcadecc349U, 0x292cbb063584977fU, 0xb87ab9b2a7fc90e2U, 0x27624a88a54e8ca5U,
  0xb613313bba30264cU, 0xa625afe23b159e5eU, 0xa8ea11a52921518eU, 0xa9796036aa888df2U,
  0xbbfd0a852cf16b5fU, 0xa9cc9f6bb65fd9baU, 0xa80c4902a8752624U, 0xa5813baf3d893500U,
  0x29ab3ddfb9008024U, 0x9c5abd812a053e3aU, 0x3c62e7b0a4a12a8bU, 0xb11d74093b421f46U,
  0x3b865111a905a6ccU, 0x30baae2827868a20U, 0x29cd54e03285e0d9U, 0x3d28afe33c9eb168U,
  0xb1ad1145a40c5aa4U, 0x3ac934dd2421438aU, 0x2242f5ff2e1e952bU, 0x26bd38cd34b46c58U,
  0xa90201fc3b4964efU, 0xa87dc8c1ad0b1eeeU, 0x2e9dfab73647b65fU, 0xbbab717baae7ed46U,
  0x9fc4a15fa30bcd69U, 0xb5417a723aca7fb0U, 0xa6add32abcc722d1U, 0x2d366e082a1612abU,
  0xa98df79b2819acc0U, 0xbb8ac74ead622802U, 0xaa4477f935f3d175U, 0x239783d4267145ebU,
  0x240201e33b0dce5fU, 0xa88970acb889d5d4U, 0x23564538a8f8ac73U, 0x3bf37e7da4b4fd83U,
  0xac8bd1ed3bfda139U, 0xbae5234ca8ed936fU, 0xaaec6368249e8f1aU, 0xa949247db2b5fc08U,
  0x3b0c58703ce0848fU, 0xac97c6bc20542a71U, 0x3cba13ada379f007U, 0x9d0d154eaf4c2451U,
  0xa46aed6b34264c74U, 0xab662d4e3d38fbceU, 0xac8d534b2e6f9bfcU, 0x2da9c440359e2880U,
  0x3a1fab602bfd838eU, 0x23e5f2aa25208a18U, 0x3822d8d33b1467a4U, 0xa8056027bcb543f2U,
  0x29bc2bbc2ca2e16aU, 0x2d6d49792ae1bf27U, 0xbbd0fb00afe3cb40U, 0xac5e168135966c3eU,
  0x23a75a42a7c0bb2aU, 0xa8883c94bcb6dd40U, 0x2bd57026386b73cdU, 0xa4d0d301a60dd41aU,
  0xbb000d962a62feeeU, 0xb1ac892cba54175eU, 0xb985ff2baba207caU, 0xafa04df1a5992d31U,
  0x2985a74bb2bf4ff7U, 0xbc52362bbc509663U, 0xaf9dbf6e29cf19f3U, 0x3d12d731a23563edU,
  0xa1dc88f0b295c984U, 0x2304e247351c5663U, 0xacab5bc33d1e3288U, 0x32e154b3325e15b7U,
  0x2e1eec23b41426f5U, 0xb77f87642be54841U, 0xbd067e013c67c841U, 0xbc01cf64bbda860dU,
  0xbdc246d4bc41daefU, 0xbb2f414abd0da4b6U, 0xbc55dfe7bb822c66U, 0xbb2834cabe29a8f8U,
  0xbc9471cdbc0d0e75U, 0xbe23c024bd074297U, 0xbdf42a50bba1018cU, 0xbd00b32a3b7d88f2U,
  0xbb52425cbc857c21U, 0xbdd4af9bbdc7ffb7U, 0xbdb09261bc3da3e2U, 0x3c8bed9dbbedbdefU,
  0x3cb5fd15bcdbe3b0U, 0x3d2dbea13cf29a26U, 0x3cc90d483d5a0164U, 0xbd0f33b4baf012a9U,
  0x3bfeae663cb27b1eU, 0x3d30f6be3cd535daU, 0xbd3c94dcba4244d8U, 0x3d5c52a93b64ffe6U,
  0x3cd97f263cfc842dU, 0x3cbca1e83d1b4362U, 0xbdd37957bcf21a15U, 0x3c6a0e05bd6db976U,
  0x3d09803abb50d7f5U, 0xbd0e1f1b3c89bcfdU, 0x3c862251bd0762faU, 0xbcb0c5723d1d3554U,
  0xbd472e60bc9c4f24U, 0x3d05744fbd15eaa1U, 0xbd3c88c63ca7dc4eU, 0xbd6ecffb3d19be48U,
  0x3d2703433d5cb97cU, 0x3c8194993d142755U, 0xbd8e0cb03c56a858U, 0xbd51342f3bc5c6d5U,
  0xbbd6127b3c3aa4a7U, 0xbc869e803d07d5b0U, 0x3cf43a81bcda094bU, 0x3bb58c5bbd0ccd0bU,
  0x3d4f0eedb9e995aaU, 0xbcae5d8e3cf1d79aU, 0x3c9ed01cbd0828deU, 0xbd425cc93cd75192U,
  0xbd0cd9a8bc8cd019U, 0x3d3b3c6abd23164bU, 0x3cc634fd3d23dda6U, 0x3d050463bd05f769U,
  0xbd3e31a13d8e7e38U, 0x3c3c2717bc59e31bU, 0xbd247fbb3cd101a9U, 0xbd2363e7bd2c687fU,
  0xbcd6b8ad3d17d0a8U, 0xbd3c4aa13d792422U, 0xbd39f77d3b6a7987U, 0x3c157dfe3ba1e41fU,
  0x3d94cf663c9889a8U, 0xbd1296b93bf90d21U, 0x3cad9010bca05f32U, 0xbb946540bd2edbbcU,
  0xbb5324f43d0eb2bfU, 0x3d10843f3bdd555aU, 0xbd05c3ce3b4e1a2cU, 0x3d2225babd26dcd7U,
  0xbca34bdabd94ba23U, 0xbc4f27a8bbb5e89fU, 0x3c85b3e23d173f69U, 0xbcd652a8bd646ee9U,
  0xbcfb4ada3bc429eeU, 0xbbd499753d619aafU, 0x3d1b46e1bcdcdbbeU, 0xbb0f4b1abb846c15U,
  0x3ca83e67bcaa21e5U, 0x3c060eb0bd7f5711U, 0x3cfcbf823c117be2U, 0x3cda5c593c786fc1U,
  0xbc8f5c443c435941U, 0x3d0739d23d14a127U, 0x3cd8ec273c0f3a51U, 0xbcbc0d983c95cedbU,
  0xbd38873a3c0820fcU, 0xbd45e0503cafdccdU, 0x3c81fe233a90b08bU, 0x3cc1b5d33d2df2d0U,
  0x3c00c3f53cda8403U, 0xbcdfb8743bddd514U, 0xbd0d0f143bef0ea1U, 0x3cb42224bcb45346U,
  0x3c5d17b23d80f507U, 0xbc5f48ccbbdeafadU, 0xbc7a23a0bcd81f96U, 0x3d3093e4bd3b6df0U,
  0x3c6c26dfbd3cc4a4U, 0xbd0b8f35bbc40892U, 0xbcfccaeebd1a9004U, 0xbd37af873d2f30c2U,
  0x3d4a3adc3c0f682eU, 0xbd607a82bd1b5e9dU, 0x3c8eb0953ad1e6c7U, 0xbd16815a3cbb9db3U,
  0xbcfbced1bc23efd6U, 0xbdb15458bd1eded1U, 0xbcf443e0bd045c1dU, 0x3ca911ca3bc846f0U,
  0xbc530eedbd153175U, 0xbc082c9ebcf74a6aU, 0x3d04d00ebc91067fU, 0x3ce29d71bd78e8dcU,
  0x3cfac1043c5bf197U, 0x3cc1468ebca68e20U, 0xbcfccebdbce9e38aU, 0x3caf7fc3bd4e72b9U,
  0x3cdc40a0bd541679U, 0xbbaafaeabd3a6bb2U, 0x3d0b8f1abd7321fdU, 0xbcb149fcbc65f1b7U,
  0xbac04073bb12fe49U, 0xbd4496a53c84d61eU, 0x3d0ad3993cb1049fU, 0xbce303a23d28ccb6U,
  0xbd36b72bbd3e265fU, 0xbd08b67b3cf09e3aU, 0xbbfc48873c08ba19U, 0xbc045d3a3d14b78cU,
  0x3cfec5f3bc2553c5U, 0xbc7f06b1bcac7281U, 0x3c2d33c8bb50455dU, 0xbb7cabba3d2cb165U,
  0x3d26237b3cd44744U, 0x3d3b9651bd072d04U, 0xbbf902713d157e57U, 0x3b34d7dfbd400d9fU,
  0x3d0992bbbc998d9fU, 0xbca8e26c3ccc3f79U, 0x3d01839bbcb35d79U, 0x3d075aa63cf29ecdU,
  0xbd5d89d8bc680a61U, 0xbd0b3f4e3d165678U, 0x3b24b221bd162127U, 0x3d2e2e1dbd47621fU,
  0xbcd76ef0bd5f71f6U, 0xbc7446cebd2f33e7U, 0xbd65346ebd312202U, 0xbba62265bba50179U,
  0x3c51bd28bba47780U, 0xbc7898b73beef1d9U, 0xbd5a8675bcedc993U, 0x3d0e51983b716b28U,
  0x3d9bb6ec3d60b239U, 0xbd110b973d32f152U, 0xba5017703cdaccf1U, 0x3aeff3573d1674ccU,
  0x3cb00964bcc18878U, 0xbd36e6d33c97ce72U, 0x3c0267343a3b8989U, 0x3d6f0fc1baca0198U,
  0x3b4f263cbc88eaf5U, 0x3cdcf8713bef76bfU, 0xbd0598bebd01dd95U, 0xbc0b3e93bbee75b6U,
  0x3b309e973ca1ea25U, 0xbd0eae76bca78905U, 0xb996b3783c681668U, 0xbc678bcd3dafe071U,
  0xbba8f0a03d539d2dU, 0x3d844082bcb0778dU, 0x3d1c63d9bd272119U, 0x3c6b5855bd0ca8bcU,
  0xbc55d6973d98d78fU, 0xbcfd62b53ceeab3cU, 0x3ccd45b2bc9466d3U, 0x3d75c92f3cf10f41U,
  0xbcc699e03d221ba8U, 0xbd1cbf213cfcfb0eU, 0x3cd358c6bc13b854U, 0x3cb6f5c93c26b7ffU,
  0xbb07e34b3cba6624U, 0x3c1bd2403cbec4a1U, 0x3c91be3e3d36fe45U, 0x3d0ef4373bf25a37U,
  0x3d9e45683d615118U, 0x3a9259343cc2e947U, 0x3cc2fd44bd084594U, 0x3ce49ecb3d39c7a9U,
  0x3d7a7acb3d76a236U, 0x3d2b77dfb8bfb07cU, 0x3d2f70d73c68fb63U, 0xbc61d4293baede1fU,
  0x3c939b08bd22fb78U, 0x3ceddb46bc2efcdfU, 0xbc3678debb9bc782U, 0xbb9d221b3c8b35c6U,
  0xbc41018bbce67a6eU, 0xbcf29b7ebc001572U, 0xbd19fb473c02a9e3U, 0x3cc040853b1d6ffbU,
  0xbd7057b9bc65c340U, 0x3ca451533c38c709U, 0xbcb38b49bbdbf644U, 0x3cf33a213c9dbf37U,
  0xbd1bb05ebd2c240aU, 0xbd167fd7bc57c685U, 0xbccd1da5bbda0c77U, 0x3d2756e3bd1da512U,
  0xbc5b5dbdbb380205U, 0x3ca0ac69bcaf9224U, 0xbc1858123c531823U, 0x3d43205bbcb150bdU,
  0xbc5db732bca9aa1aU, 0xbd082a8eba90da89U, 0x3be75b06bb451262U, 0xbca7cc41bc8b3d0eU,
  0xbd0fc68f3adbc3acU, 0xbd2f61433c61b723U, 0x3bbf9128bd4625eaU, 0x3d12d474bcf609abU,
  0xbcab35dcbd2a4ac9U, 0x3ca563bb3bd46a2fU, 0xbd14de96bd163748U, 0xbd48691a3d59cfbcU,
  0x3cb64e7cbc8e3050U, 0x3cfa99bfbd47cf18U, 0xbbaddcacbd27dd01U, 0xbd827b5b3d1e949cU,
  0xbc6622493d33b81aU, 0x3c7f38f1bbed8a81U, 0xbd7a5e973d739f03U, 0x3b88c3433d17b29aU,
  0xbd17bca53b5649ddU, 0x3c8d4dd33c5bcde8U, 0x3c80cd2f3ba5eceaU, 0x3d21cffd3b389dc3U,
  0xbc81c67bbcd271bcU, 0xbc091a413d0d3ecfU, 0xbc7c7161bbb48f2bU, 0x3d0d2765bcd53eceU,
  0xbcd6e674bb9fac09U, 0x3d0d61c1bd04de0fU, 0xbc33ef953c06f161U, 0x3c679bf93c1d39d3U,
  0x3c3fd0063c65a59cU, 0xbb73c82b3d023397U, 0x3c8e54003abef9bbU, 0xbb7e0e4fbc336412U,
  0x3d1cba7fbca4d4d5U, 0x3d3c6695bd7362cfU, 0x3c23c8c1bbea39d3U, 0x3c867ff5bc433d97U,
  0xbcd0225c3bef238fU, 0x3c9bc3a13c493910U, 0x3c672b21bc5069e2U, 0xbd2bd3753aaa0fb0U,
  0xbcc28fbd3c02c26aU, 0xbcb0cc9bbbd356e0U, 0xbd3bdda5bd49c263U, 0x3ca366febd822bb0U,
  0x3c79f352bd0ba07bU, 0x3be32a7ebcc83242U, 0xbcd68bb13c32d5f1U, 0x3c46165abd4d955aU,
  0xbc2aec3dbd5e6f9aU, 0xbcc3f95f3d0f6003U, 0x3cfda010bcb3a4c8U, 0x3c6b9432b916d17eU,
  0xbc893d623d03ecb6U, 0xbd61822cbc2d945cU, 0xbb7be09e3c9dd1d2U, 0x3992a1c6bd426697U,
  0x3c0c20cbbd1f6809U, 0x3ca56bb8bc8c2175U, 0xbcebfc043bb82a24U, 0x3c82d030bd55d227U,
  0x3bae0ccebd3ecad8U, 0x3c361ffabd6da472U, 0x3d19d38dbc9acbfaU, 0xbcf93914bd053d88U,
  0x3d08f0073bbeac66U, 0xbcb556f0bc6bb08cU, 0xbcb8e1a53ca99b75U, 0xbb7b8ef4bca443d6U,
  0xbd7d5dfdbd2096f9U, 0x3c27a97d3d406125U, 0xbd0d89943c3fa17cU, 0x3c02c6663d56d7bbU,
  0xbc955f643c847c03U, 0xbd11dd82bbcbdd11U, 0xbbefac513d2850faU, 0xbd2be5fb3d270e96U,
  0x3d19f4fc39b6e03bU, 0x3c8c2cd23bbdb6bbU, 0xbc9a24eebbd79824U, 0x3d02ebcb3d21c023U,
  0xbd0fb7fe3c884558U, 0x3d4af2ae3cfa8a98U, 0xbd2e80ff3c564d53U, 0xbd16e097bd5b6a9aU,
  0xbd2d01243ba812e3U, 0x3cd14024bd27a073U, 0xbd34cbe2bbb8aad2U, 0xbb99525e3d0a32bfU,
  0xbd41995d3d090752U, 0x3cdb6f773cf01f56U, 0xbd69ca4ebd020ae1U, 0xbd1430e0bd9b40b3U,
  0xbc572b1b3d0889d5U, 0xbd3ae264bc18ac88U, 0x3c539d453cc75a74U, 0xbc141f773c903662U,
  0xbd554cd0bccee3e1U, 0xbd804cc9bd672c02U, 0xbd452edfbc44eb68U, 0xbb9abc843c953531U,
  0xbd0f9f343d206a51U, 0xbc9f416dbd219891U, 0xbd08dc9e3d31d242U, 0xbd10ab01bc3f9d4cU,
  0xbccb95cdbcd02773U, 0x3ca69c54bd1e7891U, 0xbc952954bcf3ac59U, 0xbd0e678e3cb282c0U,
  0xbc8824633b492a81U, 0xbc477b4ebcf03862U, 0xbbe7a9993bf2434fU, 0xbd22920a3d1935abU,
  0x3d00f34b3d4caacbU, 0x3d0bc7073cd59336U, 0xbd30a90c3d4bb7fbU, 0xbb1f54ad3d14f91bU,
  0x3bc90638bd2a64eaU, 0xbd00861bbbd97f3bU, 0xbd73283dbc9a317cU, 0xbc9a566b3ce54fddU,
  0xbd5a56a63d4473a2U, 0x3d1cab94bd037050U, 0xbc23f3f2bd02674dU, 0x3c8bf5503a35d294U,
  0xbcc241c53d26ae8fU, 0x3d521376bd1b892eU, 0x3c1744e3bd0c2751U, 0x3cf094883d29f9d1U,
  0xbc1d94eb3d209227U, 0xbc316a04bc8fe7a6U, 0x3c7f4badbd253e42U, 0x3c230fbdbc94dc20U,
  0x3d2c1374bd799433U, 0x3cf3fe673ca72781U, 0xbd3f441cbd357a46U, 0x3b98f136bd65cb55U,
  0x3d063688bb960e18U, 0xbd26b4e43d02117aU, 0xbd182a0d3c27fed1U, 0xbd26ebc73cb2bd99U,
  0xbbf47be4bd0ab42eU, 0xbd38d5f0bc94b3dfU, 0xbd4e8799bd0b9474U, 0xbd7bdaa8bcb05449U,
  0xbd219c723c9927a7U, 0x3c11e7ffbd41ba33U, 0x3cf9235f3d1a4aafU, 0xbd022b503d1f9b14U,
  0xbc119155bd2a9cdbU, 0x3d4ea812bc1762d2U, 0x3c902a54382a69daU, 0xbd33ccdd3c27510bU,
  0xbc8036f8bd8b8b68U, 0xbb8181abbd8e0d90U, 0xbd163a7bbc0403a8U, 0xbc841714bcb89918U,
  0xbbccb691bc8385c6U, 0x3c390bad3c2ccfcaU, 0xbca8c20abc83e096U, 0xbb9ef174bc6be14fU,
  0x3bac68913c3707e6U, 0xbc152bff39690216U, 0x3ccb61c9bd54960aU, 0xbb9a9f97bcbd4eb4U,
  0xbcd025ccbd8b3c9cU, 0x3c8c5d70bc1d6d95U, 0x3c360f503d6d5bb1U, 0x3c43e6a23d3d5bcdU,
  0xbb1f73793d459a42U, 0xbc9914283b617b57U, 0x3c0e5a063c99b755U, 0xbcb7abcfbd18b3e7U,
  0xbb9e567d3ad405ecU, 0xbc852b753d6113b5U, 0x3cb6e9223c92ab9cU, 0x3aa434aabd4e13e0U,
  0x3c90077d3ba4c93cU, 0xbd2c65673d100a47U, 0xbc89ff7bbca1ff65U, 0xbbdfce1fbb372b80U,
  0x3bee480b3cd30a74U, 0x3c70954f3d2c3035U, 0x3aaad5e33d3b24cfU, 0xbd19cdb43c624bd9U,
  0x3dbc135bbd021e02U, 0xbc9f0e823d52fcd1U, 0x3d172bd8baa21560U, 0x3d1ed403bd303f0fU,
  0x3d146a52bd226f08U, 0xbcb0e170bbb8d68cU, 0xbbbc631fbcd144afU, 0xbce66b733ccc06faU,
  0x3c060c523d5ed217U, 0x3d002fa5bd131c27U, 0x3c4ebbf93c9b131eU, 0xba1681b83cd77026U,
  0xbcef46563cb271a2U, 0x3c169a8c3b8fcbd9U, 0xbc8245013b94e862U, 0xbd13360d3bc48d8cU,
  0xbcb635e0bd1c16aaU, 0x3c9113b6bd89a0f6U, 0xbb017b06bc6b388dU, 0xbcb1326ebc2cf35fU,
  0xbd0901813d2c9362U, 0xbd715a92bce5e687U, 0x3b3cd0aebd358cefU, 0xbc681ecabc32690fU,
  0xbd07eaebbd5896dcU, 0xbce580183d47a24fU, 0xbcfe379c3cd3b3a6U, 0xbd8347843cd0471dU,
  0x3c4dc5413b87d419U, 0xbd7d53873bba7e9eU, 0xbda33c953c88cb2eU, 0xbd4e0cc3bc8ed1edU,
  0x3c60eb54bc0c8b5bU, 0x3d3e37d4bd2672beU, 0xbb8285bbbd6f8018U, 0xbd540299bd017c0eU,
  0xbd4b6da1bd84456aU, 0xbcb106553ca3c684U, 0xbbce08c33c3d37e9U, 0xbcf404ee3cec1c06U,
  0x3c83ea873ca3c76aU, 0x3bc5d9563d364187U, 0xbd55c584bbf47c68U, 0x3ce5249abc77737cU,
  0xbbce6e383c8a3d1dU, 0xbb5eebc13d2f04f9U, 0xbd509a303d059876U, 0xbced1b3fbc1af3daU,
  0xbc68ff873c1ed97cU, 0x3cdc991b3c8843e5U, 0x3bce3f5a3bac9714U, 0x3d5617ad3cdce496U,
  0xbc9fda833d0a930dU, 0x3c61cfba3d1b440aU, 0xbcaf5aa2bd5e4217U, 0xbd665df5bd26dc2bU,
  0xbc02efea3d2608ccU, 0xbc4185443d6a20f3U, 0x3c99c0573d01fd50U, 0xbc82eddd3c9ec181U,
  0x3cdc1a84bba798c9U, 0xbd451a58bd5cef54U, 0x3c7ba7a9bcd03ed4U, 0xbcee010d3c082077U,
  0x3c8eae66381cd15cU, 0x3c74bc5ebd16d4bbU, 0x3d2b1a363c925440U, 0xbc784af4bd4d2dd8U,
  0x3d33c0a1bca04a79U, 0x3c1a170d3d0850a3U, 0xbc240c08bca43d70U, 0x3c4da9373d045562U,
  0x3ae6b2d03c8ee529U, 0xbbdbaaecbd7441c6U, 0xbccf42193ce097ffU, 0xbd34860abd70bea5U,
  0x39c07e48bd21453aU, 0x3ca7a8233d4af0d6U, 0xbd3c48473c2b308bU, 0x3d01aefd3d53aa40U,
  0xbc93c4083d0b20bbU, 0x3d359227bd0f8515U, 0xbcc21c9dbc0ad2a7U, 0x3d259fa2bd0d6757U,
  0xbd02f90cbce1b378U, 0x3d3d0b143c75c6b2U, 0x3c14bc1e3c16b9dcU, 0xbbd1119abd105d79U,
  0x3d3a0e47bcfb31d4U, 0xbcc8b2783d1883e1U, 0xbcc6e4dc3d3b4fc6U, 0x3cf1deb03c49e5cbU,
  0xbbb40d153d7c645aU, 0xbc3c2cf7bc51078cU, 0x3dac99dd3cf54fc1U, 0x3d48e7c3bd1b74edU,
  0x3bc6cfa1bd09e384U, 0xbb371ce73d44d4dbU, 0x3afe677e3c5a7e99U, 0xb8fd3bdd3cf6b1a4U,
  0x3d69c155bcec78a6U, 0xbbe81ca53d84a91aU, 0xbb8f33e53c029f59U, 0x3d042df6bd0d471fU,
  0x3c8c35c7bd523b94U, 0xbd1357773c1670c4U, 0xbd164b05bb96a62bU, 0xbc3174903dac0d70U,
  0x3cda9afcbb4a790aU, 0x3dad0c513c329335U, 0xbc0287d43b499b29U, 0xbd384f51bc910f50U,
  0xbcf50615bd42e003U, 0x3cf0f48a3c2d0161U, 0x3cd537613b137bdaU, 0xba402029bd6aaf12U,
  0x3d05b9783cfd9aa3U, 0x3ce9ffc6bcdc60f8U, 0xbd290ba2bcb51c95U, 0x3d7b9b7bbd31f3c6U,
  0x3d13a5843c4fc91cU, 0xbca8eecfba5b3347U, 0x3ce014133ce91735U, 0xbd31839fbcc08bf4U,
  0x3d01bf76bc81ed85U, 0x3d1fb935bcff5169U, 0xbc2dcd64b906f35cU, 0xbd744a203c9941e3U,
  0x3cad7e1c3d334c9dU, 0xbd294f0cbd155997U, 0xbc8ea00ebb206553U, 0xbcff268d3cc11874U,
  0xbc516a48bb95cbf0U, 0xbc9f3dd53ccff619U, 0x3d57044bbd10d07aU, 0xbc9d7492bcddcf1aU,
  0xbd05637cbd69c0aaU, 0xbd1c5a323d05f36cU, 0x3d08158abd2dcefeU, 0x3bbc76233d0a500eU,
  0xbced909dbcaf33f2U, 0x3d6b8623bd311502U, 0xbcdd3dfebd12eb59U, 0x3d1adbe73bd910f9U,
  0x3d467bf0bcb7ca60U, 0xbd2f9919bccccc1fU, 0x3d1b135b3cf19bb8U, 0x3c92314dbcfcbbc3U,
  0x3b89bd723d884841U, 0xbd35b660bbec88b7U, 0x3d4bbf613d7210a4U, 0x3d57db933d33ae6aU,
  0x3c08aebfbd240ed6U, 0xbd1da448bd02952dU, 0x3d5d3839bd1d9cabU, 0x3d4ae8d4bd1d1f4bU,
  0x3d04e9143d372a01U, 0xbd185537bcfd2842U, 0x3caba38ebcc73482U, 0x3caf64bebc89dfd0U,
  0x3d085025bd0f9ce1U, 0x3d1374163b37cbb6U, 0x3ca44abdbca358baU, 0xbc97b9c13bbc81b3U,
  0x3be4658a3ca28bccU, 0xbd34e725bd241576U, 0xbc8d386ebd133300U, 0xbcce0afd3c174e62U,
  0xbd460bb33d030e89U, 0xbcc1e5d4bc2f23d4U, 0xbcfb91fa3d3c1b11U, 0xbd2142db3c3954c7U,
  0xbd00edc13bf3e36aU, 0xbd35fdbebb7fe6faU, 0xbc9a4bf03a1ae06cU, 0x3c9898173c881983U,
  0x3c3b657d3c24baebU, 0x3c6d08c83d295aacU, 0xbc6618633cfde7f9U, 0xbc6346da3cd4b1fcU,
  0xbcb1491e3c579bfdU, 0xbd8a27f73c024b53U, 0xbbe794d03d4981adU, 0x3cad2a2a3d170e87U,
  0xbba651e9bd0906adU, 0xbae4de2b3d5eb651U, 0xbd2d41efbc64923bU, 0x3d43dd04bcaf6bcfU,
  0x3d45cab8bcbd8750U, 0x3d5630113d85cc0dU, 0xbd34f5c63c9cc588U, 0xbbb04b223d22294dU,
  0xbb845edebc5a71e9U, 0x3c2134cebc5cdaefU, 0x3bb89d613c08a063U, 0xbbae9f7cbb2817a3U,
  0x3c52367d3bfe6e91U, 0x3d38e6983c7b82d3U, 0xbba3375f3d3a47d1U, 0xbd352da23d1caa6aU,
  0x3d27e0b2bd442bebU, 0x3d69a2f13dabf7b6U, 0xbbc6df6e3d2f1f2aU, 0x3d302e7f3c0299fcU,
  0x3b743daa3cda75cdU, 0xbc8eec79bd059a37U, 0x3b89d2493aa98262U, 0xbd2cd0163d062fa8U,
  0xbd4f5293bba6e878U, 0xbc8b3d59bcd49700U, 0x3d0994dcbd38eee5U, 0x3c0ba09abd10a1edU,
  0xbc683159bd2bef21U, 0xbc098ecd3d3beb83U, 0xbc782e683d3ced1aU, 0x3d2561eebc765bcaU,
  0x3c89c28c3d3d8126U, 0xb98d7e26bae551f5U, 0x3cf14109bd896d2bU, 0x3d849b16bd5340cfU,
  0x3b3a9933bd0970cfU, 0x3d289334bc80bb1aU, 0x3a83e8b43d4c2379U, 0xbc922f213d333481U,
  0x3d5ab720bcda7a70U, 0x3d7bfe65bd407bf6U, 0x3ceab3b93aa0ba16U, 0x3c7940b63d0f78ceU,
  0x3b428f7cbbed2865U, 0xbb678c413d1f0549U, 0xbc5689cc3d34bbbcU, 0xbba0cfa23d1fa403U,
  0x3bc86e303d89b677U, 0xbd2958b33d031608U, 0x3cbeb1dcbcec26b0U, 0xbc193581bc06fed6U,
  0x3b3cd8e9bd1bd798U, 0xbc3bde7fbd1d868aU, 0x3b95d1173d169966U, 0x3d0c1d083cbc8299U,
  0xbd17adf93d23e4f0U, 0x3c8ada0fbd47385eU, 0x3d288910bc81c4bcU, 0xbd35da0f3d399b8fU,
  0xbc8273233cfba555U, 0x3d0350273c0754e0U, 0x3c045f05bc87f0d9U, 0xbccb768f3cdd9205U,
  0xbd162ae3bbb6d5a8U, 0x3c9482fd3ca25487U, 0x3c2b19ee3d1716a4U, 0x3d34dc3d3d2744b0U,
  0x3c147dfdbcd151c4U, 0xbcf3f6273ca204cfU, 0xbb8139ed3d455600U, 0x38424270bc560627U,
  0x3c87e93e3cc61b72U, 0x3ccc8666bb5577adU, 0x3cfd5090bc74730fU, 0xbbb813d3bbbd6f14U,
  0x3bfbecc1bd340622U, 0x3d052cd13bb39492U, 0xbc8c2609bd26b558U, 0x3d23ed543cf9927bU,
  0x3bce29b6bc3492e9U, 0x3c3bda673c87e58eU, 0xbce47f613b713606U, 0xbd6a0ee6bc47de54U,
  0xbca50f0abd3d7e94U, 0xbd047f23bc85c700U, 0xbc9945db3c05a43cU, 0x3d292ca0bc7a424bU,
  0x3cbd56e1bd4f6ad1U, 0x3ca0976bb9e6571eU, 0x3ca5fedcbcaa66dcU, 0xbc004dd8bd32950bU,
  0x3cb6e0e0bcd7ee31U, 0xbb22134b3b98c4daU, 0xbc6f54ef3d1ea2b8U, 0xbc5eed65bcc45267U,
  0xbc17b5313ce12c0cU, 0x3c3d289d3ce491a3U, 0x3bbc3df8bc2765beU, 0x3c3ce9aa3b06d107U,
  0x3ccd8c263d075a7aU, 0x3ca57a87bb419d4aU, 0xbce446a3bcd58a96U, 0xbc3d82793c5f3272U,
  0x3c987f3dbcbb4f9aU, 0x3cce681e3d06bda0U, 0xbd0a54a83c9cc5e4U, 0x3c643f223ca6a044U,
  0xbcab09debd065652U, 0x3c43c2e03c5fb386U, 0xbc5d5fadbd1a7c65U, 0xbd2905adbd306ca5U,
  0x3d0865b73cb3ba1cU, 0x3d50939cbc3590a3U, 0xbd87af5c3d40dcdfU, 0x3c8333d1bd608ea6U,
  0x3c2fb3c2bc9c7e99U, 0x3c4ca4c8bc2c7effU, 0x3b818b5cbd6693f0U, 0x3d564722bb85def9U,
  0xbce149573cc751f4U, 0x3cd7758b3b33956dU, 0x39114216bc297b2cU, 0xbcc59e66bcf7f160U,
  0xbd0c20f63d15a0afU, 0xbc900e0abc342620U, 0xbcc96e393cbbffe1U, 0x3c7fe72e3c7e0796U,
  0x3b3e1d303d378b75U, 0xbd5aba503be664d4U, 0xbd83b409bd7e7b33U, 0xbd170984bd21840aU,
  0xbd0e97d43d0464a7U, 0xbccca70e3c9d77a3U, 0xbcff7537bd592430U, 0xbd434fd8bd0ae013U,
  0xbd0a8903bc83c4baU, 0xbc9210923af3f128U, 0xbd2023103c9aa6f0U, 0x3d1c0a8cbd369933U,
  0xbc57b6743cacf771U, 0x3d0d2558bb606a96U, 0xbd955e3ebd8b5d9fU, 0xbb29aabdbd414499U,
  0xbd4c3794bc42ff1fU, 0xbd762a5f3d4ebf7aU, 0xbc2f67403c2eb129U, 0x3d2fee743aa64159U,
  0x3d14f74bbd09e114U, 0xbd4188303c31dcf9U, 0xbda70118bd31d197U, 0x3c2946a4bc631a00U,
  0xbd25799e3d123d0dU, 0x3bbfa0cf3d10c4c3U, 0xbd9a7309bce009edU, 0xbcccddf4bba6ba7bU,
  0x3b9284143ce654e5U, 0x3d5790b5bccb0fcaU, 0xbc3af4663cc234aaU, 0xbcf14452bd051295U,
  0x3b937c923d17a232U, 0xbc8fe7d0bcf895a9U, 0x3ca3ccf83c7c3bb4U, 0x3c1c1ea6bcf6b023U,
  0xbc520492bdaed0a7U, 0xbc639d16bbfa9d75U, 0xbdb3028a3d5c0e8aU, 0x3b809c81bc58e026U,
  0xbce3ee94bcb1582cU, 0x3bebc0c5bd192083U, 0x3d27f8c7bc01dd82U, 0x3a1f30cebbf1c072U,
  0xbc033149bcd13196U, 0x3c09a144bd401697U, 0xbd5219d5bd3a850bU, 0xbc562d923c8cae4fU,
  0xbc111f8ebcc1b398U, 0x3d048e0e3d185cc6U, 0xbc8d1ff0bab93f56U, 0x3c976b703c19bf9fU,
  0xbd669efbbd31d883U, 0x3cfee8fa3c3f34aaU, 0xbbc75a3bbd1622b5U, 0x3cdbed01bca66517U,
  0x3cff9f403d3362f2U, 0xbc93b89e3d840c1eU, 0xbcedc33e3d3e3641U, 0xbcc1d0ddbd3cf5b4U,
  0xbd533b6cbd33cc16U, 0xbbe3cef33d49db64U, 0xbd47240dbc846bc8U, 0xbcdc96f63c9b3da2U,
  0xbc82f52dbb9ca919U, 0x3d0f6694bda7b188U, 0x3d0b17873b111d44U, 0x3cc8e145bcadd186U,
  0xbbc285a6bced497dU, 0x3d4d176ebcf359efU, 0x3cc3a5fabd6b1bccU, 0xbc45893ebcd51cc5U,
  0x3cd80efb3d03ff3fU, 0xbbee54b5bce2740eU, 0x3d203ea6bc36ecfeU, 0xbc39349abc2fb512U,
  0xbd21acb03d58c005U, 0xbd24d2fcbce9cac9U, 0x3d09eaad3d29c15cU, 0x3c86d97d3cc97886U,
  0x3c3c02dabcb6356bU, 0x3c07688c3be80302U, 0x3c85b3d4bcc1ff03U, 0xbb7181503bf68338U,
  0xbd41608b3bbdd0a2U, 0x3cf52892bd591364U, 0xbb3027e4bcbd33b5U, 0x3c942870bd403e8fU,
  0xbd88bab3bcf8da2dU, 0xbd93029abd057669U, 0xbd90da4dbcd37a1bU, 0xbce2ad203cec327fU,
  0xbc9044253b6c4211U, 0x3c8b6f053d2bdbc3U, 0xbd45477bbc3f6479U, 0x3d000a6fbbd29bf5U,
  0xbcb54375bce8fcb1U, 0x3b32b826babb85b9U, 0xbd1e24de3c49c806U, 0x3bf2e3433c8ea540U,
  0x3ca5f59b3c6af88aU, 0xbd3791173b2e89dbU, 0x3cd59a523aef6d08U, 0xbc983e9e3cb5e3baU,
  0xbab576523cba510dU, 0xbcecd77c3d14e1caU, 0xbc6723373d1568e3U, 0x3cacdaa3bd0f699cU,
  0x3cdb44383d227631U, 0xbca864553cca4975U, 0xbc103f033af6eca8U, 0xbcfcff2ebd1c85efU,
  0xbbb81b633c87d9f3U, 0xbc63fe76bcd5a761U, 0x3cf8848c3c20cf9fU, 0xbcb8177fbd96f975U,
  0x3cc0f7c7bbef7950U, 0xbcaa35703bd0bb39U, 0x3cbc090b39f68c48U, 0x3b3e2d7c3d18f65cU,
  0xbca117abbd27df7dU, 0x3d21671b3b150d78U, 0x3b9b704b3cbcde56U, 0xbc868c853b28c637U,
  0xbd1310403a8f0770U, 0xbbe7bfdd3cd27179U, 0xbd416a51bc775de2U, 0x3ce460eb3976f870U,
  0xbb1506333d495957U, 0x3c27cdba3cbac9beU, 0xbc74cd9a3d16e40bU, 0xbcbd07debccc6870U,
  0xbb65832b3a500faaU, 0x3baefe523c9f579eU, 0x3d37f637bd3e3a4aU, 0xbb8e705b3bb4f174U,
  0xbd0f44cd3c65d0bcU, 0x3d1105913d0b9ca3U, 0xbc08a3b83ce4594cU, 0xbbcdcc743c205432U,
  0xbce90c67bcfef539U, 0x3cf60c643c9bf92eU, 0x3ca44f9ebcdf5b03U, 0x3986fa32bcca19c6U,
  0xbd2f73933ceb4554U, 0xbc6e54acbc84fec9U, 0x3cb2e4f03cd789dbU, 0x3d5bc64a3c117e89U,
  0x3cebeed33cd19ff8U, 0xbcdee8ad3d1e1bbbU, 0xbc91c060bc85d586U, 0x3da5a0b23d055a06U,
  0xbc443de8bbe31376U, 0xbca26509bcb2b8c2U, 0x3ce621053be64347U, 0xbd63196cbd5a22b0U,
  0xbd4a3292bd23b10bU, 0xbc003594bd738a1aU, 0x3cff37abbc70d0d4U, 0xbc5aa5453d001dd1U,
  0x3d0be511bca28bc5U, 0xbd422d2f3ab59a72U, 0x3d4ba736bd41e7c0U, 0xbd6c9a563cda2604U,
  0x3d08e4173bc34112U, 0xba8e55d53caf8dd3U, 0xbd2fa6163cd4f786U, 0x3cc4476c38ba2a8cU,
  0xbc6b1562bd3ad994U, 0xbd3d4806bcae29d2U, 0xbd1f9068bc5a6e3bU, 0x3d15b8c83b70da8dU,
  0xba549fa4bd37fb20U, 0x3b9f29d8bcc6147bU, 0xbbab588e3c58fdd5U, 0x3d6040923d078b8dU,
  0xbc320d90bd1de3b3U, 0x3d044872bd373787U, 0xbcf5e0b33d4109f1U, 0xbcb7224c3cdf4589U,
  0x3d3dd1b83bc80885U, 0xbd3efbc6bbd39883U, 0x3cfaa9053d542046U, 0x3ca29fce3c1eb738U,
  0xbc26d0573d2062ffU, 0xbcf8a39abd02ce39U, 0x3c6508a43d171457U, 0x3d41c9b43d26db0dU,
  0x3d416483bd019749U, 0xbca2ace83d308d74U, 0x3d06c8a2bce57e5dU, 0x3ce8224ebce70800U,
  0x3c43fd663b9a57bdU, 0x3d8ab9d83d0b7c7bU, 0x3c680fa13c854f05U, 0x3c4024ccbcf9bbf1U,
  0xbb4b33b83d2a0cbcU, 0x3d23e9c9bc9dc298U, 0x3bdef7d2bce26b64U, 0x3cf349c73bc4db54U,
  0xbd616664bd0406e7U, 0xbc9635dc3cae9ff5U, 0xbcb5bfafbbe487c5U, 0xbc2d509abc29ff68U,
  0x3cbba5563d30d245U, 0x3d4abaf7bcccf2e3U, 0x3cc25ff03d06d40fU, 0xbd3296703c9ad8d0U,
  0x3ba508b13c1055ecU, 0x3c75ecc33c77333bU, 0xbcce0659bd08b7bcU, 0xbd21fe423d0f596cU,
  0x3c28a798bbe537f2U, 0x3cd7e487bc0b15b1U, 0x3bc732c53d09050eU, 0xbd3f1e34bc2ff077U,
  0x3cb47d44bd1fae8bU, 0x38c32e6c3d61fd59U, 0xbd3d3e8a3d39416cU, 0x3d260f29bcfe945dU,
  0x3d277c6d3b518019U, 0x3d30ab39bd31a52bU, 0xbc4171d33afc0602U, 0xbcea3aff3d05612bU,
  0xbccb85e2bd1daf2eU, 0xbd29ae033b8f33d2U, 0x3d707dfa3d4328bbU, 0xbd53a2103b0aeda3U,
  0xbd472a633b00b078U, 0xbd445bccbd5e7722U, 0x3cf980ebbbc80d65U, 0xbd551c2ab936a7b2U,
  0x3d035e8bbcf8c728U, 0xbca40f0ebc5f3f8cU, 0x38441d9c3c102784U, 0x3c32df433a38c7a8U,
  0x3d1cffb63d2899fdU, 0xbc32c255bc399e9fU, 0xbc3ea5a8bcb17890U, 0xbcf4e7a0bc773effU,
  0x3cb6cc7f3d1b1015U, 0xbce893eebae67c9dU, 0xbbdaed673c9dce3fU, 0xbc5fe89abcf8bbfbU,
  0x3d58f7a63d01fb96U, 0x3d1214e1baf725ecU, 0xbc1871363d1f3225U, 0x3cd5f17fbc94446cU,
  0xbd0c785fbd4fc064U, 0x3d200d44bc6fbb3dU, 0x3d49c84d3cc710b8U, 0xbd4be4303d04776aU,
  0xbb7fba60bce00637U, 0x3d0c4fabbc9bf228U, 0x3d1944d13c3a7a57U, 0x3b7e3d193da70975U,
  0x3d335d8a3cd72c3cU, 0x3c8bca023c65bec0U, 0x3c87bd8abd285daeU, 0x3d0a878a3d1348daU,
  0x3d5445153d124f76U, 0xbcd21b133d259744U, 0xbd1d65793d8956e1U, 0x3be33db2bc24b7f6U,
  0x3bf21ad43cc8b0beU, 0x3d29ee0dbd01b048U, 0x3adf9c3f3c8afeb1U, 0x3c81f694bd3fddc6U,
  0xbba1c7ddbd73700cU, 0xbc0f8bda3bc24b03U, 0xbc7d11d83d729894U, 0xbd48ebb83bd11487U,
  0x3d8e0a0bbb91fffaU, 0x3d0cbaa83c826076U, 0x3d32d158bd773862U, 0xbd2e75833cbdd917U,
  0xbc1b8df33d69fc7fU, 0xbc7724ba3c902dd8U, 0xbc6a3769bd37f0c9U, 0xbcb176cebc5e3ea8U,
  0x3cfb44003c948299U, 0x3cde40c93cc7fe33U, 0xbc0b517d3a477cb6U, 0x3cebb2613c3b8438U,
  0xbd140a923c355e94U, 0xbc9ac6fabba44744U, 0xbd30d0ab3d69ff52U, 0xbc034801bceb3894U,
  0xbbbc1059bcb84807U, 0xbd10f254bc3efb73U, 0x3cccdd673b490d5fU, 0xbcb4c7b13c5deddfU,
  0x3d4f45adbcb55920U, 0xba907dbd3d13da80U, 0x3c3a6ee0bd5473b7U, 0xbd29be363d58ca6bU,
  0x3cf06bf53bc26aa1U, 0x3d04674cbd12102dU, 0x3c11441ebcbd8870U, 0xbcb0dc92bc3488a5U,
  0x3d1bebdbbc8fed5bU, 0x3d3486873c9e0922U, 0xbc0b88e03d406c8cU, 0x39945cbe3d8ab1dcU,
  0xbd382a6bbd0b5bcdU, 0x3c8853d53d502659U, 0xbc7552243c053d17U, 0x3c82f1f73da40c3eU,
  0xbc81addb3bcd8b80U, 0x3d33e9613984e54fU, 0x3d1102d13d8921c4U, 0x3c8a1a7c3db39769U,
  0xba58b6203d3b192cU, 0x3d0bba463cf3d989U, 0x3ca03c623bc02babU, 0xbabc2d00bb36458aU,
  0x3be46fc4bd11b0d3U, 0x3d8a2383bd2828fdU, 0x3c0f1fd93c806263U, 0xbd51fbe03d145fc9U,
  0x3d320ef93cac1470U, 0xbcdb95483d470322U, 0x3ca276103c13e302U, 0xbce23c61bcd9cbffU,
  0xbc2b41a6bd1a8011U, 0x3d18e3bfbccaa1e2U, 0x3d767306bc2bea8cU, 0xbcc5f66e3c035f4eU,
  0xbcfa9cc43c5b39dcU, 0xbc0f82fabce808caU, 0xbd257269bafa91f2U, 0xbc69e3b23c771e7dU,
  0xbbef5cd93cc543a7U, 0xbc9ad4a03c044b2cU, 0xbc7ba565bbd37aacU, 0xbcba11f13cfba969U,
  0x3c773f0b3d4604c4U, 0xbbd880623bc9e7b8U, 0x3d403819bd0bdda0U, 0xb9392bb4bcd68fccU,
  0xbc5d95633b75e936U, 0xbcf92cb13d0e42aeU, 0xbcc5659cbce4cb0bU, 0x3d405932bcb8d3c6U,
  0x3c5e1b3b3d388f06U, 0x3cb5a9b53ba16342U, 0xbd34af04bc177d37U, 0x3d18bdafbd374f2bU,
  0x3c79b258bcada5f2U, 0xbc47a2a03c2486c0U, 0x3cd266d1bcafb720U, 0x3cf67611bb6f5e30U,
  0x3cbe5923bb5eea63U, 0x3c6283b33cceebb5U, 0x3b9fa4d13d171d56U, 0xbcb9621a3cd60fb8U,
  0xbcf8b13cbcace907U, 0xbca2f4a9bc862cf6U, 0x3d40b4b33cf92f4eU, 0x3d25b6e93d422d79U,
  0x3c96e5c43c617771U, 0x3b345205bd70ccaeU, 0xbccaf67bbbb385a3U, 0xbcb1ffd93c8c87acU,
  0xba4239003c39a919U, 0x3aa699afbd8dbbf4U, 0x3c54de19bb85dc83U, 0xbca4c8543cc967abU,
  0xbc6f83913c8017dcU, 0xbc32593e3c40ba28U, 0xbd437aacbc005dcfU, 0xbcaa14b23c16461bU,
  0x3cc89935bc3f6f3dU, 0x3c230250bd3dcb60U, 0x3d743d9c3cc75600U, 0xbd76eebb3c02ba3eU,
  0x3c7328aa3d504c9eU, 0xbcfa23f7bdb8ac80U, 0xbd1574f3bbf605abU, 0xbd125bf4bd285318U,
  0xbc36e90a3d930fffU, 0xbc9309d93d49d2a6U, 0xbc095a593c885993U, 0x3d042e90bd09d63aU,
  0x3cafa566bd1a1aa4U, 0xbd023acb3c7f3044U, 0x3b8c3a3ebcb890deU, 0xbc148c363d7b64d4U,
  0xbd2d27263ca98109U, 0xbd23d920bca8c4a0U, 0xbc296dbcbd345775U, 0xbcfa5f4abb1816fcU,
  0xbcb3f103bc9f8162U, 0x3c1b746dbd64b0c8U, 0x3d4801843ca82e42U, 0x3c4731f23c0f9c18U,
  0xbd1513afbc3c5f13U, 0xbca11dc8bab3d251U, 0xbd6c1cfdbd3e0e36U, 0xbd1dc29b3d27d8e3U,
  0xbd236d2b3d2e26abU, 0xbcc8c4efbd09174aU, 0xbb9a60a5bd610608U, 0x3c2a839cbcce7718U,
  0x3caf686d3cd56a46U, 0xbc2876e33c817735U, 0x3d382989bcf93e25U, 0xbd9469493c4053dbU,
  0xbd051ccbbc37c2ccU, 0xbd11a8bf3c1cd210U, 0x3d14701cbb32dc1dU, 0x3b94d0983c8b97e6U,
  0x3cc0672bbc1e3bb5U, 0xbd62f01fbd6df61aU, 0xbd2b6f1e3ada51daU, 0xbd4bd3aa3a8984efU,
  0x3cdf0d3dbbef1c46U, 0xbc87d3403b838fcdU, 0x3ca948e33d3ea34aU, 0x3d1c5b1dbc211b42U,
  0xbc5a9010bd97704fU, 0x3b7c7bab3cc6b964U, 0xbd3250e6bc150e2dU, 0xbd880f1abc3aa736U,
  0xbd2d381dbd173b8aU, 0x3b5c4acb3c9b9430U, 0xbc1b9f2d3c268ce8U, 0xbd933e0fbd0057e0U,
  0x3cfc82b83bc2227dU, 0xbd49cfe0bc939ed6U, 0x3c38b3a23d87e3d6U, 0x3d0f5b2c3d489375U,
  0xbd24a7b1bccd5af3U, 0xbd2294dc3cab3776U, 0x3d7f17233d0b6bc2U, 0x3c219698bd6c5721U,
  0xbcdeea71bca88748U, 0x3c1495223c510f90U, 0x3c32b20039985ea6U, 0xbd2e1a723d15a470U,
  0x3cf98f433cbf12d4U, 0x3d0f57223d4b660bU, 0x3b7d1dba3d30ec16U, 0x3d0ddbd0bd48e154U,
  0xbc158bc7bc821fd8U, 0x3c1fe4bcbc8bf4aaU, 0x3c15cde23cd62fb3U, 0xbb1c2e803d27b42cU,
  0x3d04f7373ae28437U, 0xbd356b4d3ccfb297U, 0x3cf2644b3c3daeccU, 0xbb8a271ebd5347dcU,
  0xbd24fb3eba54de19U, 0xbd1a7c7b3ce186b6U, 0xbd5d3d313d11f21dU, 0x3b0b6d2a3cfea6a5U,
  0x3b2395d43bd71677U, 0x3cc6a2b23d3abbf5U, 0xbca0d035bcbc60e0U, 0x3cd39f29ba1b0324U,
  0x3ca8a397bc02e620U, 0x3caaf62b3ce163bfU, 0xbca50aa53d773b30U, 0x3d94868e3c41f189U,
  0xbcbd6d41bbddd734U, 0x3d42451cbd1891aeU, 0xbd03ed3e3cf23000U, 0x3a419cf23c45bd24U,
  0x3cd583573d18d72cU, 0x3d7e8853bd460621U, 0xbb4d918ebd0dc5c2U, 0x3cae81edbc3b12dfU,
  0xbc817e30bd00f78fU, 0xbd80d4aa3c98851dU, 0x3ca759683c176678U, 0xbcac8dd83c499f38U,
  0xbd07638cbc9b9562U, 0xbce88f51bd3e960eU, 0xbc3d9a10bd64b4f8U, 0xbd254fe23c2cd798U,
  0xbc8a7572bd96d4a3U, 0xbcd3d7183b2c668eU, 0x3c4b1d30bd0bc241U, 0xbd03c7e33a331600U,
  0x3caf492fbcce1cf6U, 0xbce97734bd15aa4aU, 0x3c809a86bc9f120eU, 0x3c0632303cfda5e3U,
  0x3c566970bbfc2551U, 0xbd9455f4bd9aafc8U, 0x3d0d574fbcab9240U, 0x3d20928a3c8a7923U,
  0x3cf85e76bd48ce68U, 0x3cd5eefcbcec3a0eU, 0xbc19df563c424c10U, 0xbd0b3582bd0919fbU,
  0x3c8ce218bd26b686U, 0xbc932cf53d0ae7e7U, 0xbd67567bbc87344bU, 0x3cf22c813c4a1c92U,
  0xbc71bdeabc1279e0U, 0x3cab38e9bd062097U, 0x3d0f9fe5bd0bb9f0U, 0x3cdbe2013c21f965U,
  0x3cf42b023cba430aU, 0xbd2a7f1f3c0a65dcU, 0x3d2dc9f3bb98fc28U, 0xbd006aa83cbb7177U,
  0x3cdeb2793cc41602U, 0x3cec04683c7d279fU, 0xbc7e8035bd4cd861U, 0x3c4e15b3bd1b8dccU,
  0xbd2d333ebd290664U, 0xbc359a293ca5d482U, 0xbc37fa1cbcabc1cbU, 0x3d02297c3c519f25U,
  0xbd1a068dbc266507U, 0x3cc08efdbd10f943U, 0x3c25d8243c3ff282U, 0x3cc11ba13d23cae1U,
  0xbcdd3852bc407d05U, 0xbc21e4cb3b5936c2U, 0x3cd293c43d927dc3U, 0xbbc6b3c93a19bb1aU,
  0x3d53fbe1bbc685f2U, 0xbc2a08dc3d2cbaf0U, 0x3c40d519bc5b8522U, 0xbbebd4993beec0cbU,
  0xbd56a0733d24ce56U, 0x3c32fecdbd03ffe8U, 0xbab2bde7bc4fc723U, 0xbcad0f2cbb43bd4aU,
  0x3d96ca33bc9f13f1U, 0xbcae1034bc22d694U, 0x3d8364783c6ebe75U, 0xbd5c23b73d7a6787U,
  0xbb671df63af22e8dU, 0x3d05f68b3dae2502U, 0x3c1eaef53cb878b9U, 0x3c96b57dbbfd8509U,
  0xbd06c9a53c5ece83U, 0x3c48a6fb3d0d1e24U, 0x3cb243783d575f6bU, 0xbc8390843cad978eU,
  0x3d58d7873ce8e8e1U, 0x3cacbfbdbc0b7473U, 0xbd071f62bc3acb8fU, 0xbd51c9e13d3de688U,
  0xbd1257b83cef5f58U, 0x3bc316143cff17d9U, 0x3c96e38a3d5bcbfcU, 0x3d251d68bc96dbcbU,
  0xbd16a5fd3b72e4a3U, 0xbc993480be563652U, 0xbe0031f73e8b1a77U, 0x3e3d4d9a3e48c393U,
  0x3e6a3880be2bc323U, 0x3e51a7883d694b6cU, 0x3e1e10cfbcfeb2c0U, 0xbe2e6066bd37d7f6U,
  0xbd8c284d3e71fb96U, 0xbba613023e2df633U, 0xbdf8f007be32a5b6U, 0x3ddb1b2ebc8c11abU,
  0xbd90f9dcbe00cca7U, 0xbe1d2f5d3e437dbbU, 0xbdf8c0fb3d9950c9U, 0x3db47c12bd4b9c17U,
  0x3e3ecb6cbdbe22a8U, 0x3d454b7f3e4da940U, 0x3d713bd6bd894c39U, 0xbe1a8232bda40eefU,
  0xbe24121a3e834697U, 0x3e74dbe43e4f8b39U, 0xbe38e1353e494a0bU, 0xbe1af45d3d83b747U,
  0xbdf400e13b917470U, 0x3e13046a3e549620U, 0x3e3fc4e03e041cfeU, 0x3d90736abc63bbbcU,
  0xbe1472fcbe05922cU, 0x3d77f9223ddffd53U, 0xbe32ee7039d4e390U, 0xbe4621053e834e9dU,
  0xbe6fb45b3e2234d6U, 0x3cfe7f153e4a30b0U, 0xbcfbe5a1be13f023U, 0x3b280f6abdc1da44U,
  0xbe5f42163d2b2a48U, 0xbe117f5f3c953e9fU, 0x3da026603e7d1f57U, 0x3db9d1cc3d2cb5a8U,
  0x3e28666ebbc6cb40U, 0x3dde9ff83d805d78U, 0x3e05b8483e5ce4f4U, 0xbdb2f8c43e18c2ebU,
  0xbe2c4913bdfcb712U, 0xbdf80443bdb0f65fU, 0xbd04b9023ce5b146U, 0x3d93ad1a3d469370U,
  0x3d95f318bdb50239U, 0xbbd6a3333e7991ebU, 0x3e37de30be1a45a8U, 0xbd4e48143e347dccU,
  0xbcea6781be56fd35U, 0x3e647168be37d4dfU, 0x3e2693783e1f8b94U, 0x3bba03fa3d6cba4fU,
  0xbdc3dbe6be0b1e6eU, 0xbce45ee33d262a9fU, 0xbba508b0bd94eedeU, 0xbd9f48493dbae366U,
  0xbdad4ffcbd102851U, 0x3e372f883e22f2daU, 0xbe600551bd8f807eU, 0xbdc290453dd3b767U,
  0xbe39a82a3df3cffdU, 0xbe6983db3e5a337fU, 0xbe2d29c23d804a4aU, 0xbdbe8013be179d7bU,
  0xbe03bb33be06a06bU, 0x3e1b2a86bd949fcbU, 0x3d09eb093e15346cU, 0xbddc89db3d9f6941U,
  0xbe07a0c9be09bc61U, 0xbe09d4b93e9495cbU, 0xbe12871abda8fb21U, 0xbaa6599fbdc785c2U,
  0x3e29b7903da546c0U, 0xbe0e048abd1a2b28U, 0x3e049afebd6cd746U, 0x3c1f15b0be522f8cU,
  0xbd6889173e354275U, 0x3e01d853bd2056f8U, 0xbe0889a13e7e400dU, 0xbc781de33d64a72aU,
  0x3e47a73d3d68b268U, 0xbe0d18233e9d837fU, 0xbe1d95e7be1822cdU, 0x3e66b9043e3b436eU,
  0xbd59256abe22fb88U, 0x3e473a6e3d7d417fU, 0x3e6301babe3d47edU, 0xbe230efe3e402565U,
  0xbe881b1a3a51a089U, 0xbd8c84183de3243aU, 0x3cf29e26bad37d2eU, 0x3e55290cbe22bddeU,
  0x3e13b4083e0b7510U, 0xbe04dbaf3e623efcU, 0x3ceaa3903d696627U, 0x3cdae6003e10088eU,
  0xbde4e6d1bd414420U, 0x3e1c37593e5e96c8U, 0x3e191a30be480b04U, 0xbd5c10b33d18b9beU,
  0x3d8dae763dc0db7eU, 0x3cffb7a3be0b7d4fU, 0xbe39fb7fbdc12312U, 0x3e4e93183e80e8ffU,
  0xbd95dcdc3e490deaU, 0xbd1c6a2b3d67e7c4U, 0x3dd8f0063e791739U, 0x3da73dffbdcb0ce2U,
  0xbd67ad9d3e47d801U, 0xbdc8ef6abdc70e2fU, 0x3e640ffe3e1c4222U, 0x3ce3a5593dc1c5dbU,
  0x3d23aee1be906f91U, 0xbe3469ea3c8a37a8U, 0xbe117c8e3b63d943U, 0xbe1bff3d3e78ec87U,
  0xbbd2c8163e011040U, 0xbd6879febddfbdffU, 0x3c925c173d9b5f7dU, 0xbe1d794f3ca6aa13U,
  0xbdd8b7c33e5bcd93U, 0x3dd4450cbdb20c54U, 0xbcd1e8583e6b99a0U, 0x3da296e13c724febU,
  0x3e24fa933b88f0b0U, 0xbe3d3064bd27d497U, 0x3e0428b4be81e800U, 0x3da59065be1756d9U,
  0x3cbc3d353cbbd24bU, 0x3d01a4afbdcb1bc4U, 0x3e107567be12b244U, 0x3c5bff06bdbc2f6eU,
  0x3d2cfa9cbd6a88a3U, 0x3e90530fbe03721cU, 0xbe26ecc1bdaa99c5U, 0xbdeb6cd1bdff32baU,
  0xbe74d758bdbd761bU, 0xbc20e49e3da3266eU, 0x3e153a46bb34e180U, 0xbe074e1f3e576bc2U,
  0xbde77918bc08ddcaU, 0x3e1cfda03d2a5770U, 0xbd7dc6dd3e307f26U, 0xbd1d0703bde68a50U,
  0xbd499f02bd839624U, 0x3e55744dbca41e58U, 0xbc702635bdf5408dU, 0x344d87a9bd1f31feU,
  0x3a94e958babee1c2U, 0x3b461396bc35edf5U, 0xbc0e53cdbc2e467bU, 0xbc9e03a2bb4c3933U,
  0xbb156fb600000000U, 0x362f169bbb019a03U, 0xbca71a5f3bd9a346U, 0xb9dfa98e00000000U,
  0x3c3b9f55bc9f2642U, 0x3b55146c3ac163c9U, 0x3c82068bbce2af67U, 0xbbfd339dU,
  0x0U, 0xbc090de43aba58ceU, 0x3c79a49938ca9c0aU, 0x391d1715U,
  0xbc91653aU, 0xbcecee633c41a219U, 0xbbde4149bcba3103U, 0xbcb0fb2b00000000U,
  0xbc400104bbac99f3U, 0xbc8613fabc80f0d4U, 0xbc16bec5332f1dd2U, 0xbc11ea193c39c3fdU,
  0xbc88fe5c00000000U, 0xbc1aff2dbd71d215U, 0x36104afe3cb11184U, 0x3659bda43c5b1c7aU,
  0x3bb648d1bc2524b4U, 0xbcd86d3dba5c69afU, 0x3c66baaeU, 0x3c9ff3f3U,
  0x3bb8755ebc71fb15U, 0xbc072546bb06e105U, 0xbc2e4c4cU, 0x3bae8786b964636bU,
  0x3d0885b9U, 0x3c6d71863cc80268U, 0x39dce092bc005dd8U, 0x3c031f11bc8f0fffU,
  0x3c3af7afU, 0x3b25a69eba26f59fU, 0x347bd396bcce0ef0U, 0x3c4093d3bc7f783eU,
  0x3d1a8956bc3bfd38U, 0xbd0e8166bca1968bU, 0xbc78075400000000U, 0xbbacb25900000000U,
  0x3d06597bbc1ba0c2U, 0x228ad80e23ee7533U, 0x1cd8d1341e80d90bU, 0x22a78c8aa5408e86U,
  0x278339eaa7a76572U, 0xa69536f2a60d26e2U, 0xa5ea8784165c9d3eU, 0x1dfb3ec5a530540dU,
  0xa72df546a6640ec6U, 0x9fdc65b39c1b8ce7U, 0xa629e283a415856bU, 0x99986ce7a61218d4U,
  0xa375ea58a694ca36U, 0x9a58840ba402a41cU, 0x9d1768749dcdffddU, 0xa787381ea6df1b5cU,
  0xa3ca2c2ba5b8c9f4U, 0xa2f8d7809d035761U, 0xa14c6682a6a3cea8U, 0xa4b3349ba4b28f5cU,
  0xa5f3330ba59da2f1U, 0x259ae3aa9b10d529U, 0xa6785596a5b7c397U, 0xa5851b0ba6a00d9eU,
  0xa7824ce31ec5651bU, 0xa749bc53255bb40cU, 0x23214dfa19431f23U, 0x2634da862067770cU,
  0xa08fb85fa4f81357U, 0xa158b30d21ed1707U, 0x248eb7a9a6595eb7U, 0x21af7ac4a65482e1U,
  0x1f171cb1a339dc5dU, 0x1d43793625552426U, 0xa4cb71caa601762bU, 0xa4999023a5828664U,
  0x2189ad53a459d88cU, 0xa51843cf23406bbcU, 0x98b3726aa536d41bU, 0xa564e3769fb3c57cU,
  0x22472001a6495b0fU, 0x224b5852a63413e0U, 0x1d383f67a5ebc98dU, 0xa56af322a1083045U,
  0x9ee6f93ea1de5b57U, 0xa5e39b29a4259d37U, 0xa54e0df226cedb8fU, 0x255d08eca73223fbU,
  0xa6ba3609a2ecd779U, 0xa76eb3ee9c3cb31bU, 0x2416676024059540U, 0x1957fb66a210431cU,
  0x22a047431f1f4e9cU, 0x208be3e9a3337c0eU, 0x2297dc5a2365497cU, 0x237e04e3a30796b2U,
  0xa2cfb63e2217d6e9U, 0x9cb5365da307943fU, 0xa37ff72fa31d39daU, 0x1d85275f21000254U,
  0xa4137089a3ba3af7U, 0x9df6929fa2d7ff5bU, 0x1e323904a32f0a07U, 0xa081a23ea4d4d47bU,
  0x9afaa735a18f6c81U, 0xa227c2f423261aefU, 0xa1aa0eaaa27e3b66U, 0x1c1ed1f820321532U,
  0xa0254c51a4f3ed8eU, 0xa1ca5853a1a83b6fU, 0xa2fc4355a273e35dU, 0x9ed72cba1bae6cd5U,
  0xa2e2f7a4a1bd8c1cU, 0x2602639ba3883580U, 0xa3b8d732207daaa9U, 0xa36e5fa2a2f80db8U,
  0xa308acda1a59c37eU, 0x2361e8099c90ccf3U, 0x1954b80da258ebc4U, 0x2097f81aa23c8fa9U,
  0xa27a016ca34abf88U, 0x21917fc6a33f72b1U, 0x1f0e839e9c66a21aU, 0x1d5d0707a2195e70U,
  0xa30c45bda30a69d5U, 0xa3920176a27fba11U, 0x20cca209a33b702cU, 0xa25e04f12103436dU,
  0x9c7ecb54a2bff339U, 0xa20338979a8cf87cU, 0x976c26c9a2a38d02U, 0xa32fbc04a309cd6dU,
  0x98a1f7ce240dbbe6U, 0x2206c7bd18e521e0U, 0x1c0884399f1b741cU, 0xa2819893a2dc6090U,
  0xa239b4f7a2874da0U, 0xa1a46647a38d81f8U, 0xa4cc628b1dc03782U, 0xa38a2cba9f6ecd4eU,
  0xa2769623a34bac8bU, 0x270d5d0dba801a99U, 0x321453e3b1e09bfcU, 0xb188da543b30ee3dU,
  0xba6d22663b05b8e4U, 0xb98ed94ebaa57a50U, 0x38d3925398707be8U, 0x290d3272ba008561U,
  0xbabdb8643b1ace50U, 0x31dbdf1c1a36b8b3U, 0xba9183d9bb2690e8U, 0xb27fb6eabafede38U,
  0x39e4f5123b06dc95U, 0x9bb61872bae79c4dU, 0x9a69a51d9d824d4eU, 0xbb522c76ba8b8278U,
  0x3a8d1568b9be488bU, 0xa0bc668032f2d8aaU, 0x983f3fb43a309665U, 0xb986cacbb78adf55U,
  0xba1ae71c38a25551U, 0x395ab1ac197d9a88U, 0xb9fd1ff0badbccefU, 0x3ad7d179bb1dc2d1U,
  0x3b59232e2843ca70U, 0xbabe0517392fc671U, 0xbb1d5e761e1c2184U, 0xba20c173ba1e8b53U,
  0xae0c104d3a505912U, 0x29246e1abaccfd6eU, 0xbacd920bb9376e7cU, 0x38563247bb17d865U,
  0xa20da278ba34e6c2U, 0x17f3abb6baa88031U, 0xbafbcd553988e9e1U, 0xbb08a14cba1d53aeU,
  0x9d20a474babb6f08U, 0xbb0619dbb0a48d4bU, 0x99e25bc4b9b8554eU, 0xb976a95839b8fe69U,
  0xb247fc0fbb03c802U, 0x3975640fbacc0f48U, 0x9b763e5dba86535cU, 0x3990cafd9ad2bbecU,
  0x26046eda39c12d9aU, 0xba9a08dfba0b5cf6U, 0xba662bea390be7f9U, 0x3948098aba6ddc7bU,
  0xbb3636591b560c7eU, 0xbb5c1bada095b9a0U, 0x39d906b93a02c386U, 0xa86c3e1fb4f3a357U,
  0xae1cf979b2f6e9e9U, 0xb259fe5ab56d62f1U, 0xb612169d3409d7c7U, 0xb6b294cfb5347457U,
  0x32c1139ca0d59688U, 0xaa6825e3b5d6ac2eU, 0x34545628b60e0f7bU, 0x2e8f5bbc1e0752a9U,
  0xb4a16df2b5f2b3d4U, 0x342b3f80b5cea69fU, 0xb36db86eb65c216bU, 0x9e240181b597050aU,
  0x1d8b135d20f7ab7bU, 0x377b9105b5f1cf1aU, 0xb520db36b48d62bfU, 0x9c1fe0e7affdfc8eU,
  0xa0190167b40a34caU, 0xb41a2ab1b4684a78U, 0xb5e88f17b33a5af7U, 0x33551d7f20c3454eU,
  0xb535ee78b5ce6719U, 0xb6177159b5c2a44eU, 0xb6bac4caaa99f4fcU, 0x3601e84634657fa3U,
  0xb5b704fa18c2d688U, 0xb5cc549cb4c2f079U, 0x2cc72235b4d72e7cU, 0xaa8b5a6ab5f05052U,
  0xb59deb91b6163b78U, 0x3329cd61b5cebfd9U, 0x1f46d96833c7625eU, 0x1c853971b53563f8U,
  0xb60a1d0633b266e9U, 0xb61cd87eb4da21dbU, 0x1dbdad58b615e0a6U, 0xb550c7b92f8d06e8U,
  0x201181bcb50df008U, 0xb47b56cdb40f745eU, 0x33e4cc59b5adf6edU, 0xb4171ddeb594d26aU,
  0x1facd328b5952edfU, 0xb59178c41c3af6f6U, 0x232b566db2aefdc8U, 0x340bc632b54248c4U,
  0x341c933a3417e3cfU, 0x33a15109b671b3e6U, 0xb5c1f4321d48fa94U, 0xb610eba120bd9814U,
  0xb53b02d7b63e048fU, 0xad913acfbcbca57dU, 0x2d750d2839c8cfd3U, 0x39e627e0bafdbf1fU,
  0xbc1fe6863c9dcd33U, 0x3c712f653aeb1c9cU, 0xbaff49b01cfac5eeU, 0xafc95b48bc8f4b60U,
  0x3bc7de0ebc16d602U, 0x2ee37d721a7ebe46U, 0x3c9b7bda3b4b292cU, 0x3a533267bc778a37U,
  0x3d249d223bd2fc7bU, 0x1d1f8703bcc08d65U, 0x199907871e6895daU, 0x3af943423a83110eU,
  0xbc07bbdbbc432d6bU, 0x9afff28c3b0ea086U, 0xa2d6a8fd3c396fabU, 0x3c8216583c931b2eU,
  0xbb10e450bc2b933eU, 0x3d2da3331edb768aU, 0x3c72418bbc88ecedU, 0xbc5979c7bb84afacU,
  0xb95aef5826d23b96U, 0x3932f67cbba96ae1U, 0x3c23a09c218dd29aU, 0xbc94580abb6d1869U,
  0xaae432f5bc802018U, 0xb02b43efbb389e7cU, 0xbcd2166ebabb3c71U, 0x3d531809bcbb5958U,
  0x17d0a1123d05cda1U, 0x1be4c285bc98f4cbU, 0xbc02a3c5bb918fe8U, 0xbc01a42cbc839c34U,
  0x1bf7cca0bc161b01U, 0xbc351636b7287f2dU, 0x9e4edbb43a56f6a5U, 0x3cc203433d30a292U,
  0x3a3ca0e6bc985195U, 0x3cfce4da3b9c712dU, 0x1f960c643b063a74U, 0x3ba83d60a25c2f0bU,
  0x2b02b0543d78392dU, 0xbbd0eed23c81a24aU, 0xba65362f3ca67531U, 0x3d0f519a3c7a4153U,
  0x3cb7389e991f2485U, 0x39d7c6d69bff5d79U, 0xbc12a1063c2a853bU, 0x9a24b79ba69cdb1eU,
  0x225bc0e1a814a33eU, 0x2212056da8782be4U, 0xa836914aa74f3f7dU, 0x26ec516ca80aab2bU,
  0xa7b00075208b0c38U, 0x9b09dd9ea8450f6aU, 0xa9594ff6a8b472ccU, 0x22586076a287afadU,
  0xa85cefada85287b1U, 0xa89482eba79113b3U, 0xa8527f1aa78a1582U, 0x1c075333a784a35aU,
  0x9e23c0981d863c8eU, 0xa8d1a141a892f3f8U, 0xa623c2eba771b0a4U, 0x1fb730ac9a08b6adU,
  0x1d0f89caa9301a90U, 0xa863e62fa8020bdfU, 0xa8cb5d4ea6cad240U, 0xa8d2129b9ae1d29eU,
  0xa8c3cd31a85c6a71U, 0xa7a43417a91b5d74U, 0xa8b7ee8520003581U, 0xa7e9b1fca42c5e6eU,
  0xa7c95afb20183820U, 0xa7ad47e324311facU, 0xa0853539a6a481d4U, 0x1d01d046a778d58cU,
  0xa7b1a18ea8d2556eU, 0xa8cca5ffa5ed9e10U, 0x99072066a84b3f9cU, 0x1a1482bea6b837a7U,
  0xa898e211a7a40b71U, 0xa7263adfa750cc49U, 0xa1891556a745628cU, 0xa6368868a12da383U,
  0x9f571324a5b9afeeU, 0xa8560ef2a7c31bd0U, 0xa83dc808a68babbfU, 0xa86f6825a88148f0U,
  0xa1372f6ba50d24ddU, 0xa7b0d91719c4ceb1U, 0x98a3209622c188a2U, 0xa7e1fb24a8f675feU,
  0xa64a7e2ba6cc988bU, 0xa8cf1acea91f7167U, 0xa78696f21f161ec6U, 0xa8c2d69aa0fce442U,
  0xa65ad2b4a8bc163aU, 0x194b3f5ba8b517afU, 0xa5ccde72239c08acU, 0xa34de424aa06ba26U,
  0xaa0b8aa8aa691a52U, 0xa9b9340aa9a87190U, 0xa9cacd5e9cc322ccU, 0x9f02ab6fa9913aa6U,
  0xaa18c765a9f95e40U, 0xa5bca0371c83c0ebU, 0xa97af8b62b747f1aU, 0xa3787db3a99107cdU,
  0xa4b3e9a6aa3f6cbdU, 0x9ec5fb5fa98a0394U, 0x1e1f80ba9e99f7d2U, 0xaa7645afaa0db1d5U,
  0xa8bd458ca9773dfdU, 0x9d097a24a53406efU, 0xa056418caa3656b6U, 0xa8e6a5b2a8cc5fd0U,
  0xa9d1cd02a91edbdeU, 0x24e881079ea35f63U, 0xa9c6e5dea94e2be6U, 0xaa0616beaa569975U,
  0xaaa38293a22b416dU, 0xaa7ebafaa9c24d34U, 0xaa0dc6f49f8e42c0U, 0xaa01df8d234231daU,
  0x22981193a91060dbU, 0x1d7e6e0fa9cd8c5eU, 0xa9309cab2b266b77U, 0xa460c5fdaa0167eeU,
  0x1e1cfd44a68251a6U, 0x9ff3b3cfa8f5179bU, 0xa9c5c3b4a9c44e96U, 0xaa2bd079a94a394aU,
  0x1f992c95aa2052b6U, 0xa92e345ca4a17474U, 0x1b62c6f2a96e9be3U, 0xa91786232362dff3U,
  0xa32b7d73a95cfe57U, 0xa96728d8aa0821a8U, 0x212f0f10a9b37774U, 0xa971e17a9d559992U,
  0xa087f7312445c4fdU, 0xa973fbe8a9c2edacU, 0xa8dbbbcda936986eU, 0xa812e118aa889a8aU,
  0xa9f0ef19991e3ce7U, 0xaa4688fea22aee23U, 0xa9609f2faa3ae316U, 0x1d4600fbaa89967bU,
  0xa6ac3868a3370940U, 0x20cec9d9acbdc368U, 0xadccf8e62db70be1U, 0xa97a3ea82b11d7f9U,
  0xaaada56e999416e7U, 0x20c5c311ac51520dU, 0xaced1784ac8ce624U, 0x23b1f0339df34d3eU,
  0x2adb66d52bc1c204U, 0x24055eb9ac38095eU, 0x23c8ca1faa2fe3fdU, 0x9fef8a04a9fadb18U,
  0x216e8fcba1092c25U, 0xacf8d547ab3168c3U, 0xa947ba6dabdb4493U, 0xa052c79d213aacaeU,
  0x214d08daab6485f6U, 0xaafbd9c22a7165ebU, 0x2b2e0827ab29eca6U, 0xa1583b002114b110U,
  0x2b899abbac43c194U, 0xac8cae2cad15ecf9U, 0xac15b0b819b783b9U, 0xab7f46a6aab12e8cU,
  0x2b1512ff20339833U, 0xab68ed64a67b9b13U, 0xa4806be2ac000018U, 0xa04b9cf02bb079b2U,
  0xab2f5003ade33e94U, 0xa61a5d782bf70fc1U, 0x9caee2bda84a29bcU, 0x1b1c86eaaabaca88U,
  0xacc6b98eacdb478fU, 0xa93a9f54ac3870adU, 0x9c41ce202cb1ff27U, 0xab7c4f79a706ac71U,
  0x9dcc5f5cab47a023U, 0xaac01bac1e5ba9baU, 0x9fa29a85aa172ea8U, 0xabae115bab15ab7aU,
  0x98fb1b6e2aad4c13U, 0x2a98587ca00c05c0U, 0x1d790879a68515acU, 0xabd57203ac6cfd7aU,
  0xab81d185aaae3b74U, 0xaa22f78bae09bb21U, 0xacb3ca4a18f0f1aaU, 0xacffacb19c115449U,
  0xab894dffabbff74eU, 0xa0641cbda9210585U, 0xa192f1afa07342a2U, 0xa2fba493aa806cbfU,
  0xaaa8cd59aacdd50dU, 0x2816a048aa5f416aU, 0xaa5ff2931d03f4d0U, 0x184fcbe0292b33baU,
  0xab31a53aaa80498cU, 0xa0e345d919bba506U, 0xab16d96baaeefcb9U, 0xa5e1924faae4649eU,
  0xa4ecfde8aa814150U, 0xa30337e6aa52623aU, 0x9c7d23651db8288eU, 0xaad99e11aae836beU,
  0xa95e65f9a9d100f6U, 0x9c65d465a035f7e8U, 0x9d4af3f4acc3f3fcU, 0xa93c4b24a998b893U,
  0xaad6e1b5a8dca57aU, 0xa34e60c8a2bba9b8U, 0xaa4d612eaa6cff6fU, 0x2bac926e2b1e68cfU,
  0xaaf96606a2c126edU, 0xab17cfb8aaad6dedU, 0xaa23b51b20a5e117U, 0xa80f53b023009e02U,
  0xa05d6c1ba821317cU, 0x1dca0d24aa87aee4U, 0xa9e0a04eaaad54c1U, 0xa44a5563ab2c99c9U,
  0x1b6e519a251dd19cU, 0x98d91036a9aca7b8U, 0xaa7c28a9aa456f6fU, 0x2b335641a9d454afU,
  0x9d86e3f0aa12bcf6U, 0xaa0b6ed1a31c9fe2U, 0x2013ed83aa0ae479U, 0xa93919212422b150U,
  0x1dec4814aa12de97U, 0xaa4e1490aabd3cfcU, 0x9a01a0c8aa4f82d5U, 0xaa37a37118f84c78U,
  0x1a20e97ba50f2367U, 0xaa08e36faa3a0153U, 0xa9aa2aeba7444125U, 0xa807d670aa791e45U,
  0xaababfda9a9d4005U, 0xaa6e8fcb1cbf2084U, 0xaa0467a5aade9cbeU, 0x9d971791a9dd4bc2U,
  0x25064900a3cafec1U, 0xa250edecab41bf9eU, 0xab736c8da76904e0U, 0xab1c8249ab239d16U,
  0xaaa83cea9f2e45d1U, 0x22825c2eaa9eb4fcU, 0x2c7ef1aaaa80463cU, 0xa60cb3561bd4e039U,
  0xaabb8f0fabd98e24U, 0xa5207c23ab01df85U, 0x253ec4ec29194079U, 0x9c172bedaae4a694U,
  0x1d9980831919f56cU, 0xabd1bb38ab43d65eU, 0xa9f72a96aaa3ca11U, 0x1acf25a4a4323c88U,
  0x21b54e85ab543f1aU, 0xa9e29516aa187825U, 0xab1de5a8aa7190dfU, 0xa67edf4520a9604fU,
  0xab155082aa820851U, 0xabcbc45eabe0f354U, 0xac5a71f5a28665d3U, 0xabc5c9c8aa835460U,
  0xaadef0be9ceb34a5U, 0xaade56952620ac3dU, 0x2419944daa167b96U, 0x22b0f264aa91537dU,
  0xaa852c37ab9bcbcaU, 0xa61813a5ab6e7b73U, 0xa158db26a6cc14b5U, 0xa29796f1aa524168U,
  0xaaaab7ceab17fb41U, 0x2c2f734faa829a31U, 0xa215f441ab7a9a16U, 0xaa9cadfb26352314U,
  0x220c68edaa96036cU, 0xaa472f31a4190d81U, 0xa4ca9ab5aaf6e8c0U, 0xaa366b24ab2af00eU,
  0x180bf2bbaace1830U, 0xaabac5061f089d93U, 0x9a2bd052a7096790U, 0xaa528513aaf52f7bU,
  0xaa339393aa2fb302U, 0xa92ac9b9abfdc25bU, 0xab3413861a479b88U, 0x2c2105faa10f1a0cU,
  0xaa6fcb74ab921d5eU, 0x9a60c0a2ad20e51bU, 0x229744f5aa7ed6abU, 0xa728c670ae18e445U,
  0x2f17ba51ae44fdeaU, 0xae3486b5ac472d5bU, 0xaddba620a22f6084U, 0x9c2bbc60ae1db36bU,
  0x2d47e825ae0c1309U, 0x229f7a9d1dbc3d74U, 0xad78b55fad6f77c4U, 0xa989ac78ae1abf9cU,
  0xac1dde1fae44f1c7U, 0x9fd3ebb8ab6ec9d3U, 0x2202b270218fdfe4U, 0xae9cef94aeacb63dU,
  0xab526f3bad480247U, 0x22af5d171ba0e4eeU, 0xa2dac4c5ae893a53U, 0xac307e1facb7748cU,
  0xae152e482b9602c7U, 0xaca1a71fa085c608U, 0xadd66124adf4074aU, 0xae347f94aeb1fb8fU,
  0x2ed962a41fb9fe13U, 0xae0b62a2ae02bd8bU, 0xadd0fa3c1ff3dd4aU, 0xadcce025ac5f786fU,
  0x2124799cad3ea6efU, 0x1a852d8bae17390eU, 0xad8b6695ad960a89U, 0xac476a46acca4300U,
  0x9d986d43ac103f6fU, 0x9e053698ad6325d7U, 0xad5cc4b4adea7385U, 0xae43d4c0ad3db966U,
  0x2308762fae2b526aU, 0xacd7fa1fa2de52fdU, 0x1a21a7bdad3caeb3U, 0xad4e4382aa112a0aU,
  0xa8cb1884add4efadU, 0xadaf1881ae3edf68U, 0x19bc3a83ad9b0499U, 0xae0481faa04d6071U,
  0x184420d0abdf3078U, 0xad89235fae26e115U, 0xacf42c5cad11f399U, 0xac5bcf42ae997adfU,
  0xaeae807618a072aeU, 0xae3396f7980e10b6U, 0xad92aea2ae4aee68U, 0x2f72879abc84966dU,
  0x2cbf72b13a064411U, 0x3a0105b1bc69efc5U, 0xb91a6b4f3c1fbc3aU, 0xbb10d5e9bc56b2d8U,
  0xbbbfde929ad0fbb1U, 0x31aaf3ffb954f798U, 0x3c6d1642bbf96deaU, 0x2cc362879fcd6fc0U,
  0x3ca8a96e398e9a1eU, 0x3a883decbc572d10U, 0x3d231ba33c4ae123U, 0x1e2992bcbc5a4598U,
  0x1f3bc65b209736d6U, 0x3c30e0023a48f6d8U, 0xbcc11013bba8e748U, 0xa2bb7d3b3a268d1eU,
  0x22e727973c2453f7U, 0x3ca9e7893c92e96dU, 0x3b8154d7bc819699U, 0x3d5d64e7a14ed316U,
  0x3c8e800cbc0dc84dU, 0xbb863c3f3ba99720U, 0xb9e827a228003fc7U, 0x3c0918f9bbffe1ebU,
  0xbbd86ca599b3a7abU, 0xbb0f56cc3a11c0b0U, 0xa1adc707bc54bd3aU, 0x31b6163dbac661afU,
  0xbcef3a263bdd8042U, 0x3d5e0800bbb51ba8U, 0x9b97fb4b3d2c8994U, 0x217142b8bc2e331fU,
  0xbc1a6b31bbb5e470U, 0xbc31edccbc089ad7U, 0x1f88111abbbc3ecaU, 0xbc324e2cb71dc158U,
  0x182a82a7bbe23090U, 0x3cbd58ad3d004218U, 0x3a8e8286bbf39b35U, 0x3cd9f8663bdd01bfU,
  0xa1a634ba3b24a5b8U, 0x39a78478a2657837U, 0x29a172fd3d868b64U, 0xbbf4c25a3c8e8f16U,
  0xbc1ccd213cc1b29dU, 0x3d3ba8aa3ae65e80U, 0x3c6854fa1a4e7fddU, 0x3b43549ca2215388U,
  0xbc4d31a43c328b03U, 0xa2d4da17b69a355aU, 0xadca4a88a85d3361U, 0x23009ad0b6fcc88eU,
  0xb5c667edb7b8ba96U, 0xb5d7cf4ab785afd4U, 0x358149001f6c8e91U, 0xa872858db737fb9aU,
  0xb6b930edb6951737U, 0x2d181c609984a6fcU, 0xb4ed1cd8b78d5a19U, 0x2ca69f06b738861cU,
  0x35897ea5b7e4ef05U, 0x1abd7595b733df4aU, 0x1f2e27521cd0bc64U, 0xb80b31adb6836ea7U,
  0xb701880fb51fe259U, 0x9f9c4b422e7698beU, 0x21950d62b7a688beU, 0xb547a520b62054fcU,
  0x35b2ec9ab5f0a66bU, 0xb522132c21ecac1cU, 0xb7528c65b763f202U, 0xb71bc685b7b54097U,
  0xb6ef9b262470335eU, 0xb7aed836b6f46fbcU, 0xb757b0cd229807beU, 0xb62aa479b58ac6e0U,
  0xabd2bb3bb69917b5U, 0xa88feff1362328c2U, 0xb788b1c5b7072467U, 0xb4ceb152b7a78810U,
  0x22bf7c88351a19e0U, 0x22121c1eb6d49b52U, 0xb739eb15b5230264U, 0xb7c3b637b58d35fbU,
  0x9de15461b7ce00a2U, 0xb66e0934aed99a6dU, 0x1a266b94b5d08cd0U, 0x3623f7aeb6139056U,
  0x2c8cf76fb791c52fU, 0x34283b90b7275526U, 0x9fa219a8b69eeb2dU, 0x35b88d8f1c4361ffU,
  0x29d4dbb0b3af018fU, 0xb74edc62b6e727bcU, 0xb5aff1acb5e06d80U, 0xb635153bb7af5c79U,
  0xb60eaafa1aa2d53eU, 0xb7af42df19022daeU, 0xb6012885b70e4721U, 0xa1b0beeca9667267U,
  0x1ff621d29d2eccc4U, 0x1d905faeaa4f37d8U, 0xab6184eeab2f5710U, 0xa9682fdbaaa7b241U,
  0xaa0028a72197460aU, 0x9df1889aa9a45fc1U, 0xa9f946dbab316b04U, 0x9f4cecf618ac813aU,
  0xa960511bab7c0a66U, 0x22b21340a9ba1975U, 0x1c92f676aa1cebdfU, 0x227bf04aa9ca10acU,
  0x98c43991a0b38059U, 0xab521bc0aa668549U, 0xa8f682daaa2a7907U, 0x2150c6f89c7928afU,
  0x988c2610aaade768U, 0xa8ba9157a8bfea9eU, 0xaa0300c6a96b9fe5U, 0x9f07ef54211dffe0U,
  0x27d8f115aa086903U, 0x29733c06aa955caeU, 0xab474de29c968246U, 0xac37a536a9c78a34U,
  0xaa3bcc059fe4fca4U, 0xaa1770d3a07f134aU, 0x1f2d27ffa95ce934U, 0x1df8da06a9f77cf6U,
  0xa92e464aab189d4cU, 0x1e9fb886aacc9c20U, 0x221b963b23eceb4eU, 0x21083019a980fa9fU,
  0xaa45d17eaaf768deU, 0xab25cbf2a982f2d7U, 0x221e9b15ab108269U, 0xa9a74ecaa0143601U,
  0x9e08a288a99228a0U, 0xa96555d7a029fb42U, 0x1d1dca79aa53ff66U, 0xa9321608aaa7a3bfU,
  0x1a5392e2aa122606U, 0xa9bf209a1d453002U, 0x9c227e3b24b43446U, 0xaa2c9c06a9ad4e72U,
  0xa9847667a9ae8f75U, 0xa849bd64aaa2c56bU, 0x2ab38cc49aeeea68U, 0xaa8b53181ef2d27fU,
  0xa99f205f2c151f00U, 0x21a1d6fea819af51U, 0xa2c0e5a1a8a960c6U, 0xa7f03d34aa0994f4U,
  0xa95f9f9aa9ed128eU, 0xa8ffb771a8efeeaaU, 0xa8fe118f9aaff75eU, 0x96063b7ca93162d6U,
  0xa9460c67a8afb396U, 0xa296f3971914ca2eU, 0xa98a0583a9afee06U, 0xa93a8044a88584b9U,
  0xa8a6030ba8cc5010U, 0x9d1dd4b2a8b89eabU, 0x1b8b50139ee29a3dU, 0xaa23c41ba919687fU,
  0xa7cfd7f3a87c5edcU, 0x9981c48a9d7fc78bU, 0x9f8f9dc2a969e73aU, 0xa9456f08a8be7fa7U,
  0xa91a3d79a9209699U, 0xa986530e9b6670faU, 0xaa1d37f1a82a2c51U, 0xa944916d2acf55a5U,
  0xaa1c52dda18042acU, 0xaa028775a8827fb2U, 0xa9c0890922841f2aU, 0xa9693e3da82cc82dU,
  0xa0ca1603a84bb7ebU, 0x9dadfe36a91f0a06U, 0xa85665f2a9a9371aU, 0xa7a86e20a9161c14U,
  0x1c1bf68fa8db4d87U, 0xa1254051a86f425dU, 0xaa237106a92462d6U, 0xa93129e1a8266e1fU,
  0x9b011deba92cc1e2U, 0xa90b8124a35e5a9aU, 0x221765e6a83cfea1U, 0xa91e6d7da3ba2601U,
  0xa8dfcdaba8c95384U, 0xa9376b50a962364bU, 0x21e0e4aea9202583U, 0xa884b1b71e01ce5fU,
  0xa2dec9baa9c87ef6U, 0xa887b3daa9c4bb80U, 0xa78b9a0ba97d96afU, 0xa999fed6a9c06b7dU,
  0xa9f93d8d2217a02fU, 0xaa5ff0b49aa872a4U, 0xa8918578a922540eU, 0xa103106da4c40420U,
  0x1ebc83b49bc1956bU, 0x20005606a668461eU, 0x251104eb256b7215U, 0x25993790a567275bU,
  0xa58c7e979f02ae63U, 0xa09c6f58a596e133U, 0xa609fdcea5b5a37bU, 0x2147a14f21aaaa4cU,
  0xa4d2c10ba4e37cb5U, 0x22fd9071a538f3a0U, 0x23665017a6536f44U, 0xa0f314ada7157128U,
  0xa2c89a189e06a5feU, 0x264c96d025063d71U, 0x249b801fa4f4c7f8U, 0x99c17a931ec4fa36U,
  0x1d98718325fb5dd8U, 0xa4e8f3ba23e85091U, 0xa12c31bc24d75a32U, 0xa197792f9ad0f466U,
  0xa51b1c36a652fa03U, 0xa6964f5e25e8b635U, 0xa5baf50ea07b6ad4U, 0x26cffdaca3ab64d3U,
  0xa428d10a1f2a5b8cU, 0x26064f102388654bU, 0x99865567a5952505U, 0x1ebc5b7f2616c244U,
  0x24b9db3ea6b3b699U, 0x1ec07beb2485c1daU, 0x9f44fdcc227143b2U, 0x1b96b5c9a491e87fU,
  0x24dc856625aa8cf1U, 0xa72aec28a608cf7eU, 0x1afb3b2ca72165bfU, 0x244412551d2122b6U,
  0x1b217811a4915975U, 0x24db0ad39cc76f54U, 0x9c1e07afa5d2db8cU, 0x24bf17f0a595687cU,
  0x22a9dd78a5abccf2U, 0xa3adb1db196ee6abU, 0x9f5c4b43a506900bU, 0xa484e305a610543eU,
  0xa56b1036a6c6e11dU, 0xa4487679a6e73b37U, 0x2505e7cca1ee1bf0U, 0xa5d1a59ea1897201U,
  0x24b26cc0a7045585U, 0xaffca4ec3d55e34aU, 0x3160bcabb9d70524U, 0xb9180118baebc45eU,
  0x3c6d0e593b408f6cU, 0x3c061857bbb26377U, 0xbc945a03a21cb61aU, 0xb22b4dd1bc7d5797U,
  0x3c3749d3bc93a5f2U, 0x306705d31eefdcbaU, 0xbc2fa19b3c143618U, 0xbaed8fbbbccb3a5fU,
  0x3bee04ab3d1d21efU, 0xa1448f103aa66979U, 0xa121c8fba18580eaU, 0x3c07c8d6bc12f79dU,
  0xbd3b07dcbc68b573U, 0x21980844ba071c34U, 0x1a8cbb6a3c7d3b5fU, 0x3d38cd6abcb2db26U,
  0xbc997d523cea1d02U, 0x3dd7d269212b9590U, 0x3c499e5bbc44edb5U, 0x3c24c1ffba95f54bU,
  0x3bdbd1d7282e8bb6U, 0x3c2a036dbd0b28b3U, 0x3c94adcea29ac8d2U, 0x3b94f1f83da436dbU,
  0xa91f3f04bd6944c4U, 0xb286dbc7bd18eadfU, 0xbcb1909bbbfbda55U, 0x3df2f912bc6e8947U,
  0xa0766ced3bfce1dcU, 0x1a0441b9bd72cff6U, 0xbc0cfa313bf2bd92U, 0x3b637f78bc9a27faU,
  0xa116a45c3b29dc86U, 0xbbeee68c3830a456U, 0x2207d1babd53456cU, 0xbc4c3e5bbd0f2e7dU,
  0xba1f5f85bb67de1cU, 0xbc4ec9d43ce1c03dU, 0x1caec27cbd098d8eU, 0xbcb14bfc2215d8bfU,
  0x29ba6d863ddf2934U, 0xbce5af443c6b1338U, 0xbda6e3103c77d1dcU, 0x3dede02e3abcf987U,
  0x3b75dd7d9d96a23cU, 0xbc4c2248a0b4073fU, 0xbd52e323bbc8cde9U, 0x206b983423193c46U,
  0xa0fbd5ca1c79f838U, 0x22ab78f7a71c5a95U, 0xa7605496a69da8f8U, 0x25991a81a79ca7d6U,
  0xa7512be79f9a0d53U, 0x2112d56ca72aa567U, 0xa8c0967da7b2f3bdU, 0x21c4d349987ec54fU,
  0x23df669a26ca7118U, 0x9f97755da798e477U, 0x22166075a7ecedd2U, 0x1980fb7da7264b80U,
  0x219618a9988c3998U, 0xa87652aca7d2bb9fU, 0xa5bdb27fa4952566U, 0x1c24f9d81cc0858dU,
  0x9e54e746a6c1e3bbU, 0xa57a1e0da5da5d58U, 0xa5c6b081a5a202e1U, 0x9e908c0d2113a1acU,
  0xa79694c4a705d5eeU, 0x2523b99526f57e5aU, 0x2747a16f1fa7b24bU, 0x262cff94a7846fe0U,
  0x273862ec1a1a6d5eU, 0x25e778702403e4eeU, 0x20e8ba84a6abe9cbU, 0x9892979ca780ded0U,
  0xa70256dca82453eeU, 0x228b61b2a6c5c7f3U, 0x20e5953523719e96U, 0x18ad49b8a5d74337U,
  0xa8305ecfa7a9f137U, 0xa760fa2ea6cf30e3U, 0x9d05370ea76baff2U, 0xa5487db8a1741866U,
  0x9fea1eb8a51763e7U, 0xa6d658661b21fbb4U, 0x1f11bdbaa670de24U, 0xa3a83bf2272b2327U,
  0x18cac5f6a70d6af7U, 0x2509dbb320258a25U, 0x1f15b26122ca75d4U, 0xa605574ba584debbU,
  0xa690cda3a6ed33feU, 0x23a7cb62264bff96U, 0xa6de8d131a75a154U, 0xa60d58b21a1db09bU,
  0xa6840caaa6fc8eabU, 0xa80ae079b72ebe66U, 0x30ad60edb633cd83U, 0xb628ec20b87b5360U,
  0xb8858830b8e55909U, 0xb835b68bb7e579deU, 0xb76c9eaba264a423U, 0xaa08d127b88912eeU,
  0xb7dcfb0db83ae6b6U, 0x2fdd1d739cc4a738U, 0xb7ba6302b8caeea2U, 0xb69d2805b7eccca7U,
  0xb70be328b8adfd74U, 0x9a0c4980b8002cf7U, 0x1db4e5529a9d122aU, 0xb9041024b7296923U,
  0xb786f94eb6823183U, 0x9abdc7b0b492d5b8U, 0x1fc256cab89b415fU, 0xb692d2ebb690eee9U,
  0xb89225a6b6c5a571U, 0xb7a20f92a08e6fa8U, 0xb836dd22b84c42c2U, 0xb82d81c1b89a5b50U,
  0xb91167ea2ce8673dU, 0xb8b3d9e4b8273d73U, 0xb875cfe09e139ee7U, 0xb697e53eb6bb0796U,
  0xaa106b6db78998acU, 0xaa2cea70b8201deeU, 0xb7f35674b88f8ce9U, 0xb780a81bb74fa56bU,
  0x210439feb7363b82U, 0x9df96da9b6ab807bU, 0xb8816e75b8079046U, 0xb89e81f3b6fe2124U,
  0x1e3ba155b8ae1264U, 0xb79c4dadb3a91ba8U, 0x9e3824b9b711448cU, 0xb780479ab766d028U,
  0xb6a91921b7f638e1U, 0xb6e56adcb84d00deU, 0x22a75055b7997a0fU, 0xb7cf0239a01e17a8U,
  0xa8fa70e6b79c4589U, 0xb71ead95b7f92d41U, 0xb797ee0cb77ff582U, 0xb6eb901cb8f698b8U,
  0xb867ea171f89ab82U, 0xb8a86d109e3b4c6aU, 0xb7b729bfb8229ecdU, 0xa30b113ea9d1215dU,
  0x2723e9c9a35529aaU, 0x23213a63a9272b91U, 0xaa9ad93aab6d8802U, 0xaa5c85feaa92ce4bU,
  0xaa444bda9d0ab517U, 0x9a8ca531ab7ce25fU, 0xab02d0d3aa05fd9cU, 0x2716264617cc340eU,
  0xa9ce45ac2b6d5f59U, 0xa5a12adaaa473eb0U, 0x26306127aabdcd6eU, 0x1e0b52d4aa345fe9U,
  0x19d8241b19c38e05U, 0xab11398fab1eeeddU, 0xa9a8491eaa2574ceU, 0x1aff227626ca58cbU,
  0x99ae19e5a8b53162U, 0xa99b8cfca947228fU, 0xaa3cf5b4a9ac5cd5U, 0xa61fdc8f1d307ddaU,
  0xaad7991aaaad1074U, 0xaa9d55f6aa9041a2U, 0x2b98b06d9fee0cb4U, 0xac2ed8d5a9e618deU,
  0xaa2a03f09dee82ecU, 0xaa035b6da60d9f5fU, 0x173c01d6a9d26d3dU, 0xa5240234aa83382eU,
  0xa9ffe50eab41764aU, 0x2767e9ac2a02c8f3U, 0x170039fca69db778U, 0x99ba2d18a9b4e249U,
  0xaa25c9ebaa99e219U, 0xac3e2bc2aa369281U, 0xa0b12f5829839e86U, 0xa9de460227172eb5U,
  0x1e328fa3a9cdeb92U, 0xa9baf391a607912bU, 0x21e882fdaa5839ddU, 0xa9a88556aac08252U,
  0x223e0f06aa4f0c84U, 0xaa673e99a019d4d0U, 0xa38ee480262061d8U, 0xaa5e53eaaa2e8e70U,
  0xa958771ca9fcc438U, 0xa922c2c9ab999406U, 0xaa27204b9d20b6e5U, 0xaa99d51198fe484eU,
  0xa9805122ab108597U, 0x9e6d8e10a69e2fc0U, 0x9bdd241aa9799d0dU, 0x1dbc8de6a9cf49e9U,
  0x288309fba68d39beU, 0xa880c09ea8834fd2U, 0xa864687921df075bU, 0x1a56eae8a89bafd8U,
  0xaa78de94a8ccd3f7U, 0x1bbbbad121af528dU, 0xa9b20ceda9d42495U, 0xa9f94f4525f02968U,
  0xa9b0cc59a8cbbba2U, 0x208a81bca55d58caU, 0x1c42565c98adccdeU, 0xa91f7659a98c3048U,
  0xa49d9d5ea69ce756U, 0x223f6c2a9b132814U, 0x185736a5aa9a47a0U, 0xa9bb479ea954478bU,
  0xaa309ddba80c1938U, 0xaa300cf0201bd72bU, 0xaaa12618a7997a44U, 0xa92ae4a2aa668683U,
  0xa8f1d060a2c172c2U, 0xa903693926e14e16U, 0xa93a03c79ffa65ddU, 0xa8dd6609a2bd58d0U,
  0x1fc8196fa7be6b8bU, 0x1f0aeadaa5c32e79U, 0xa7a90372aa30a227U, 0xaa2b430f281c83daU,
  0x1f6bc23da9aabce3U, 0xa15256f7a703c894U, 0xa8838f13a771f224U, 0xa83c1ffaa45f3e1cU,
  0x1934465daa3186ccU, 0x24d31cf69f30b4fbU, 0x229eb50ea7804d9fU, 0xa9b55133a9242e38U,
  0xa99f5965a68510c8U, 0xa9d8fe04a9971813U, 0x1ed480302715ec77U, 0xa8c2c02c9d2e2427U,
  0x18d429dd25b46338U, 0xa79b4f1caa3fe3edU, 0xa3cb64b8a7226354U, 0xaa2dc993aa3e94eaU,
  0xa80573a198f30e2dU, 0xaa27f89d219ecfdfU, 0xa6e83a44a9eb52f4U, 0xa14768c3a1df89d0U,
  0x9e6b5c8399955bd4U, 0x1b6300d4a106abfbU, 0xa1115691a14a1b42U, 0xa0656654a0ef2678U,
  0xa0ba59e01c1265a2U, 0x1acebcdda0cc6005U, 0xa15ca3e8a0f7be20U, 0x18f909f821768b98U,
  0xa2c75dcaa148e49eU, 0x194cee62a0ac1ba2U, 0x1eb6e5fa9c1657c7U, 0x98750aa2a08fc730U,
  0x1adee5b920d85ad4U, 0xa153d372a2839a06U, 0xa112d5c0a076e8f0U, 0x9baea3da1a76140bU,
  0x9976a94fa111559bU, 0xa0c9f21a9f87e774U, 0xa0c4f3b19fb0711eU, 0x2156f4839e112597U,
  0xa132721d9e867fd3U, 0xa0f285e59fa428ccU, 0xa17946a0a237b0a2U, 0xa2088a95a0baca39U,
  0xa0a033cf1d477ce4U, 0x22a0b9b81fd3cfa8U, 0x9d4e62d7a227671bU, 0x1a978cc09f36163dU,
  0x2202c334a121f675U, 0xa1acf141a11301adU, 0x1ab2c0811a8fc184U, 0x216a4d801b256090U,
  0xa0ff4fa09b944af3U, 0xa128296ca0576f66U, 0x1f3d48a0a112de21U, 0xa0644d119c331962U,
  0x1c9ae6b7a049b6b6U, 0x2081da0f9da204faU, 0x22790a52a0a05656U, 0x1dc7d92ea2a13e04U,
  0x21c61f4ca2dca64dU, 0xa07b588ea1b6c6ccU, 0x1a87c4a3a101159cU, 0x1dc945cfa0ae6291U,
  0xa08ce05a208b90e0U, 0x9e5888daa01a27bcU, 0xa1235ad61ce32990U, 0xa14e75331b69f767U,
  0xa0d7c6cea11267acU, 0x1decba99a4a9ac80U, 0x9ebb44d09dbcf6c0U, 0x1e1a90cda7527815U,
  0xa73b2ff3a6a115b6U, 0xa70dcea3a75756c1U, 0xa6c8e9ed20138ba0U, 0x9fd1cb1ea6b28cc7U,
  0xa766fb65a742720eU, 0x23069d5c1b19c712U, 0xa6894fdba6958b7aU, 0x1d421f2ea749c824U,
  0x1d222d09a7354fabU, 0xa0a45b77a65375c7U, 0xa119b06499127b7cU, 0xa7bd2098a766a279U,
  0xa50047e3a6977e36U, 0x99156d221b0cb7f4U, 0x1c047606271b8ccfU, 0xa52c1895a58d6078U,
  0x25f52c3ea586744eU, 0x1d3b10f29f5698ddU, 0xa7a77825a6c85d21U, 0xa753ca36a7fd6a68U,
  0xa7ec39b21be55758U, 0xa63100f5a6afab74U, 0xa6af392f9a4358c0U, 0xa61cc53b1d389a07U,
  0xa1c310eca8166f5dU, 0x9e3f541ca71a8f39U, 0x233b1383a8249ac8U, 0x9eca89b8a7aacdbaU,
  0x98d5a485a2327270U, 0x9521df65a5d07bb5U, 0xa6ed0715a6d02b27U, 0xa79cf026a59aaf2dU,
  0x1b8cf7a5a6bd7beaU, 0xa5acfac91f261a9dU, 0x9e3846c4a64f2f52U, 0xa5acb7eb9fd6fffcU,
  0x9e6af78ea6b35a30U, 0x25fdf6f4a70181a1U, 0xa1c71902a6fe1b4cU, 0xa649c893208cb4c8U,
  0x9d8770ff9ed5d3d8U, 0xa669e488a726159aU, 0xa525835ba587ee26U, 0xa53fdc1b2783dc62U,
  0xa713327a1c57b967U, 0xa708203ca15d8887U, 0xa622b423a706e0dcU, 0x2fcc693abc7688dbU,
  0x274b9b1d3917d6e2U, 0x395551413b22fc74U, 0xbba68653bbdeac70U, 0xbba03741bb8eb3e3U,
  0xbc38a8b71c670052U, 0x32259d2abc6e1cbbU, 0x3c611abfbc5b7b5dU, 0x2643b84d9a4a7e9aU,
  0x3be6c9f3bc096c6bU, 0xb9b2d860bccf176fU, 0x3d68ce963c5a3016U, 0x1c456b30bcb3d21bU,
  0x9a8fcc2d220327c5U, 0x3c386cb4bab4853eU, 0xbce3075ebc836ac5U, 0x9fb3e8f63b454d14U,
  0x209933613c83c12fU, 0x3d2d95bd3ca03f23U, 0x3c288fb8ba0f41e8U, 0x3dc92b7c9c16b1e7U,
  0x3cff4acfbc6f2ae8U, 0xb799c3a039981ee4U, 0xbb95d469198536fbU, 0x3c44c0f6bc17321cU,
  0x3c21e6a09913c78fU, 0x3b805d0d3bf847deU, 0x2486028ebcbb8a37U, 0x320b11febc50b8fcU,
  0xbd19b2dc3b5b3669U, 0x3ddd8515bb524f4bU, 0x166064ac3d452757U, 0x9b63885fbd12748fU,
  0xbc0f1ddbbcb43adaU, 0x3adbbe84bc322c3cU, 0x9ba566babb5843e8U, 0xbcaec189b8c06ef2U,
  0x1c57d420bc76eb7bU, 0x3d27f9c43d3c63ecU, 0x39e49e3fbc8edb28U, 0x3d10e445bc1aaae8U,
  0x1e2c175ebc84f107U, 0xbbd03da41d41ac81U, 0x1abcd0d03dee7aa5U, 0xbc74c0663d007d1cU,
  0xbc703bc83d134f7aU, 0x3db23d1f3c062809U, 0x3be776f49ea1463aU, 0x3c19b9371d3628d9U,
  0xbcaaf9023c0d6108U, 0xa65101c5bb1e3ec7U, 0x3588553aaaa9f894U, 0xa90b99bcbb14d1bbU,
  0xb9c58c203b047042U, 0xbb4654a7bb03f16fU, 0xbb33a58c9b33ec70U, 0xa84c0357bab4dd86U,
  0xbba58dab3ac99d0eU, 0x34d1bd059fc256deU, 0xbb43a08e3950ffeaU, 0x2ad8d1e9bb890531U,
  0xbb7d83ffbbc468a6U, 0x9ed4ff4539c4779dU, 0x1911ac34193a6835U, 0xbb4909d1bb8bfff9U,
  0xbb4a9606bb622c68U, 0x9b1c5ee8b583e8adU, 0x9e851f14bb5ff1d1U, 0xbbad62183ac5a6a5U,
  0xba93aa9bbb284e67U, 0xbb2eadb621080903U, 0xba89cd2cba1a1431U, 0xbb7f14613ab18938U,
  0xbb0c92b326ba9fe0U, 0xbb6860e23a16db7eU, 0x3b93be8b995cae34U, 0xbb8b3646bb0f871cU,
  0x330bf49abb6d5f71U, 0xa8757e0b3ae90608U, 0xba8a394abb700f1fU, 0xbb5819a1b961bb61U,
  0x1e50ef873a99816bU, 0x9a4f4cf2ba956fd8U, 0x3a2e2d4cbb6a70c9U, 0x38e7f4c6baf4223dU,
  0x98cd1c0fbb377660U, 0xbb2d6ce7360e6086U, 0x1d9eefe23b04792aU, 0x39d312eabafc8e24U,
  0x2a0d41b8bb58928fU, 0x3a51fdc33a27a59aU, 0x1c0d00c8bb37305eU, 0x3a87b90ea17eb046U,
  0x298ea33236052c48U, 0xbaa47dfc3a9a6020U, 0xb9a10055ba5b5ec1U, 0xbb342f8a3a98e7e2U,
  0xb7f8641e9a9ebea7U, 0x3b237d25a216ef48U, 0xbb5a061dbb20743aU, 0xa3fb1b5aaf709012U,
  0x2ac460cda96dd4e3U, 0xa6b961fdb09c0314U, 0xb02e6fbab0fe88d7U, 0xb032c961ade5b201U,
  0xb0253cdda035e9f5U, 0xa447c710b0320ce0U, 0xb0d677b6b0815052U, 0x2a9cd8d21c0ec1a3U,
  0xafd6e0ea2fb24beeU, 0x2a2991c5af98447eU, 0x2a9ae8a6aff88ae8U, 0x9fe478d4afdeb6faU,
  0x2301ac12217f7702U, 0xb103d854afae683fU, 0xad8e0566afef0df6U, 0x9f81f7ad28179d53U,
  0x1c78f62cb0a79ef5U, 0xaed0f219af29d975U, 0xb0d8a73fae8274d0U, 0x2a51a5b71fe5e3bcU,
  0xb0ad22d1b037e159U, 0xafb90222b02d793aU, 0xb0af5c1e26068cc3U, 0xb1363c4faf9ca87bU,
  0xb050acc81a7f134aU, 0xaf95bd89aad4399eU, 0x2787b5d5ad1521faU, 0xa62bead4af85be8dU,
  0xaf0c7b1cafa39f07U, 0xaba754662f8e1f2eU, 0x1baf565dabefd87aU, 0x9e74d5beaf37176aU,
  0x2db822a5af9d72dcU, 0xaf8cd29caf859bcdU, 0x9ca60043b1027decU, 0xafc00b9d2a86d0e6U,
  0x208a2d42af2de793U, 0xaec0d67c2acc97bbU, 0x2959d152b0861381U, 0xaf8adcc2b080c94eU,
  0xa20e5217afaae89dU, 0xb0072e18204b78faU, 0xa482b85e2b80be07U, 0xac39fe2fafa0be50U,
  0xae1e7d68af9a41c8U, 0xad99c6f82fa95a85U, 0xb10458629c4ea285U, 0x314aea3c1b05c1cfU,
  0xaf44f0aab0f37d94U, 0x975c1da6a8e13548U, 0x22690fd821772ae1U, 0x20e507eeab29068fU,
  0x2a25acd8abb43975U, 0x2a35ba8faac468d1U, 0xaa8712031f56faf6U, 0x99fccd86ab2adb22U,
  0xa98770a9ab378ed7U, 0x226123111d0d7065U, 0xaa8e608daaa555c4U, 0x237cab7faab91478U,
  0x23a3414f29d9b4d6U, 0x9bfbf2beaab631b0U, 0x196b038b9e6887ceU, 0xaa554dd4ab6ce1d2U,
  0xa9d1c313aa291636U, 0x9fc5871da2881986U, 0x9e139feca93e4882U, 0x29f3fd2ca900addaU,
  0x2afee842a991768cU, 0x23f13af21b05a1b9U, 0x25c22661aac9b8caU, 0xaa5d04c8aa4cba3cU,
  0xab3d07841e46d54cU, 0xaa1eb4fbaab54c90U, 0xaa03b807207988b5U, 0x2a02ac2923fe4804U,
  0xa2ca416faa5b996aU, 0x9a198e94aaff643cU, 0xaa2e5ffbab74d068U, 0x2401a492aad23dd6U,
  0x1e61a5822984834aU, 0x97d8b257aa46e502U, 0xaaf1dbf0ab55dcffU, 0x2bc4a44caa121447U,
  0x1d476d73aa98c76dU, 0xaa68588aa10d2edaU, 0x9ca1ebf5a9f853d8U, 0x28ed5f2023520842U,
  0x2346f248aad04673U, 0x297136bb28d7ffd4U, 0x9d4522f6aae8ceeeU, 0x2a3e56eb1f9cd9beU,
  0x1f67d92829b8afd5U, 0xaaab4e8e28bda3c2U, 0xa707e7e12653c227U, 0x29f4e1cbaa1607eaU,
  0xaaf842841e168ee0U, 0x2b77fb7620482417U, 0xaa770d6faa2955a0U, 0xa5b214a5b9a1b189U,
  0xb50f21c42a915e3cU, 0x280b6db3bac343f2U, 0xba83bc48bb0334edU, 0xba5416d0bba86fe1U,
  0xba6c71b81fdba5d5U, 0x2aa1d46fbab87524U, 0xbaaa339ebaca31a9U, 0xb53994a11cf7a78fU,
  0xba1fafe0babbbdc1U, 0xab2b6f8c3902be31U, 0xb9c38114bacfcaffU, 0x1f841485ba8913a5U,
  0x9f0269991c1d8032U, 0xbc0ad91abb94944dU, 0xba8722f4b9079415U, 0x17da3276b60a257fU,
  0x9a033c7ebb2207e5U, 0xb8dbd339388ea1f3U, 0xb9964b62b895f57cU, 0xb946dba61889282fU,
  0x3b0d380bbaa26f3dU, 0xbb3bc480bab79485U, 0xbacdbbd5a9d0799eU, 0xbabad616bacb04d6U,
  0xbb9f90191fd60fecU, 0xba269528ba300004U, 0xa6811cecba0607c3U, 0x2abf9a88ba45bafbU,
  0xbaeac841bb725f0bU, 0x377f7e26bb95ce41U, 0x22d5b0ddb979cf30U, 0x9c927b1ebb00a69eU,
  0x3b59afe7ba97224fU, 0xbba04bbbb980ae58U, 0x9a53f628bb03a502U, 0x38039f2eae96ff19U,
  0x19ded1a9ba251abeU, 0xba1b4ff7b9b304b5U, 0xabc6a75c3a8311c5U, 0xba3fd992baf16533U,
  0x9bb26587ba7b08b6U, 0xba307536188818b1U, 0xb176b93db99308d6U, 0xbb308abebac149fdU,
  0x3a137ee3ba6589c4U, 0x396e1f4bbab51648U, 0xbb3d6b1a1925fb8dU, 0xba937839a2916dafU,
  0xbb32679eba098a38U, 0x9af4a85d2605f280U, 0x9cd118e1a36bb426U, 0xa2c574e9a842c370U,
  0xa88b05e7a90cd4deU, 0xa7dbda3da7b8c704U, 0xa7c53d939e4a1838U, 0x1d4586f6a8de4d40U,
  0x2791cfe728161752U, 0x9c89e79a16de3cd6U, 0xa786198da880b02cU, 0x9f5a669fa78a710cU,
  0xa190ff52a768a1fcU, 0x9dd837e0a79b55c1U, 0x9f0e9dc998f344b6U, 0xa9009b75a82dc807U,
  0xa59b5711a7188382U, 0x9ee4ddea9d0ffc03U, 0xa2eeb7faa82a1873U, 0xa60e0536a5c14344U,
  0xa839c623a5caa98bU, 0x9c583b7e1acaaa0dU, 0xa787e56ea5586153U, 0xa895d863a8db44e9U,
  0xa8b20224a0e6349bU, 0xa8e3ff5aa7ebfe0cU, 0xa78343ba9eccb7e1U, 0xa72854529f99a9c2U,
  0xa2363942a5c35688U, 0x181e367ca7aabca1U, 0xa713bbc9a849fb3cU, 0x1c63fc58a83b241dU,
  0x201af2bea3962195U, 0x2115d7e9a58e00b8U, 0xa88eea54a8a5f16eU, 0xa775384aa69b52fcU,
  0x9a085889a8ae3a4bU, 0xa71329c09e9a3c36U, 0x1c0166e1a6b55407U, 0x26b5893f22e72dcfU,
  0xa02a03b8a73c7f16U, 0xa702598ba98e3583U, 0x2098ad7aa7de0440U, 0xa7d863469c886e6dU,
  0x1fdffba5a31883f4U, 0xa7647bde290920baU, 0xa6d82fa6a76b44eeU, 0xa67dda9aa8bc110eU,
  0xa835f659a1892f89U, 0xa61e9314a00212edU, 0xa5fed1e127b12209U, 0x9c3d5787ae72cf30U,
  0xaa80543da87f6e40U, 0xa2028939b0d67553U, 0xafe5386db0e8757fU, 0xae981c34b07ac9d2U,
  0xaecf7630a10fb466U, 0x20749020b0714ca1U, 0xae474146b0769574U, 0xaac2a5b5a06f0376U,
  0xaf79b25faef6abccU, 0x2b4ed82fafc775aaU, 0x2b6769dbae48d508U, 0x2107e869af49bce6U,
  0x9cd86c7820536282U, 0x2f107666afdbe0a2U, 0xadee07d8af1777a8U, 0x9e99a35423f20f9cU,
  0x9fa5958e2ff9ade6U, 0xacd3eb6eadb89037U, 0xae8fc20fad833c98U, 0x2be9d44c219538acU,
  0xad339015af691db7U, 0xaed074a3b086888aU, 0xb095ef5a216db30cU, 0xb16600dcaf8d3792U,
  0xae2a24a59b861049U, 0xaf16db60aaf09a61U, 0xa8931558aeffbe09U, 0xa2deba10affd1706U,
  0xae5eb632aeef0dfdU, 0x2bd1b82fadcba73fU, 0x19c61b98ab86742cU, 0xa07d9c63af1e1c30U,
  0xb01e7748b03797caU, 0xb07c036daf533729U, 0x190c2b29b0a51264U, 0xaec51a59ab5d1e74U,
  0x1f806d0bae0131aeU, 0xaf0c6c5b2a86acaaU, 0xa8a3c44faf64f03fU, 0xadce4a6faeba20aaU,
  0x212e5683afe7fdb9U, 0xaf9f16a81d621d53U, 0x9c1b42072c42e821U, 0xaf0dd608addc80e9U,
  0xaea9b9cdaece7766U, 0x2c1de715b0bad90cU, 0xaf47d4199f3908b5U, 0xb10cecb922f14a68U,
  0xae7f1b5db0442772U, 0xaaa00082b2d23193U, 0x2ed03bc2306b3b36U, 0x2fe5df72b465681dU,
  0xb4865bf2b43aec06U, 0xb3141b23b39f9bbbU, 0xb3b91b9b224c2c02U, 0xac9c9407b40112b5U,
  0x31855dacb3e85e12U, 0x2ee1aca8a278a270U, 0xb2305d4ab51b7008U, 0x31eb3304b3bc2f95U,
  0x3136fd4c32204b80U, 0x21128a70b3851808U, 0x1e2d4c009c250c66U, 0xb48990f8b28eb027U,
  0xb2540dc0b28e9ab4U, 0x1df448fa2d8dbbcaU, 0x9b2823abb42ebeeaU, 0x3093902cb0ae3be0U,
  0xb3bdb38cb1a4d1adU, 0x318bfd7a1bc8668aU, 0xb2648d22b3e065adU, 0xb409b7edb4376f5eU,
  0x34a8c6172a5e551bU, 0xb4e72554b3eb7167U, 0xb32af69e9f3a07feU, 0xb374c2d4b203c98fU,
  0x21eb0783b2b0851aU, 0xacba509ab38afc25U, 0xb31a0799b45bb1adU, 0x32641bddb38e2760U,
  0x9ac0c13031105ffdU, 0x1a8e8cc6b256e409U, 0xb3b36dd4b3a4e237U, 0xb4783372b2f9aef3U,
  0x9f192170b4bd5babU, 0xb2cbf5e0acc80fd9U, 0x9d96248eb1ce34dbU, 0x3041046c3115ac09U,
  0x31155b1bb3c60c6cU, 0xb147cb2bb3c41d52U, 0x9c37ca92b30b098cU, 0xb2ae1e2317cf0c67U,
  0x2a27e86a3271c558U, 0xb29c0bb7b176c8afU, 0xb15562fdb1135733U, 0x3202017eb450e071U,
  0xb2d318e721d53142U, 0xb49ff98a1f8f8246U, 0xb2c3ebcfb409ab1fU, 0x22b3cb79a8d4ed54U,
  0xa63cf1631f580e3eU, 0xa201a3bea9d05c68U, 0xaa569702aa3c93c9U, 0xa9d219ddaa05173bU,
  0xa96e41e017b7987dU, 0x9d1773eaa9d6698aU, 0xaa1c9928aa0241d1U, 0xa664c7149a112850U,
  0xa9320030a9aa1dffU, 0x25049670a9c84871U, 0x24a2e038a9d5fde2U, 0x1f8894c2a957513eU,
  0x1f59f1251c13aca3U, 0xaa841f61aa071512U, 0xa8f42488a95ad32bU, 0x220f1830a69e5e01U,
  0x18193284aa1abd70U, 0xa9144246a8c44d71U, 0xa989288ca903dfd2U, 0x2565e6139e804159U,
  0xa9bd466ba95625b7U, 0xa9e631d2aa7724f2U, 0xab11ae839f459a36U, 0xaa47f688a9917d8cU,
  0xa997ecb41c4fcdfdU, 0xa9b0b70324ad13b8U, 0x1ec6729aa90efbabU, 0x24a28360a9b16a50U,
  0xa921ae27aa289f96U, 0x2530d7cfaa014ebdU, 0x1c17bb36a5514a9dU, 0x2014f8e9a91ad124U,
  0xa9a8b402a9db3656U, 0xaa5dca9ea91b5ab4U, 0x9b6a9f6caa0b30b7U, 0xa9688e5a21a7c53eU,
  0xa2d7cfbfa9185df4U, 0xa935aa2da51ede58U, 0x2348d444a9938f0eU, 0xa90f6cc9a9a3d321U,
  0x9a229c64a98b1eeeU, 0xa98414d71c63ebc7U, 0xa2bea2a325eebec6U, 0xa9752124a98ab998U,
  0xa8f7caeda9340782U, 0xa82b058baa2d7805U, 0xa9db67eb1f9b8656U, 0xaa15a823a16a15faU,
  0xa98423b6a9fef826U, 0xae56670f3c3a8ddbU, 0xac05649739295930U, 0x3969e1d4b9e15b2fU,
  0xbb7752223b8ab4f7U, 0x3a9d93f5bc465ee4U, 0xbc14c2521f5fbddeU, 0xb02027a7bc921074U,
  0x3afb9516bc296634U, 0xabbe98441a155a9aU, 0x3c06aecdbad71aceU, 0xb8e1a8a8bc99f3f5U,
  0x3ccd95233bbad77cU, 0x99b02695bc007e46U, 0x1f625e3398f49cbbU, 0xbc82d17fbb153d05U,
  0xbc2606ebbc34dd12U, 0x9b00a890ba0a8ac2U, 0x1f48cd943bd23bd5U, 0x3c95cf753b932526U,
  0xbadcf69a3c1970ccU, 0x3d86ba49a24501daU, 0x3cc31fc5bbe765d4U, 0x3bb59eba3bbdeeb9U,
  0x3ae7bb52a0d18dabU, 0x3bab6fefbca2d692U, 0x3c016b291ba06f23U, 0xbc291d0a3cceb3efU,
  0x2b0d1e08bd20d97fU, 0xb1438129bae7e1ddU, 0xbcc88b3f3a7f3619U, 0x3d913823bb39224cU,
  0x1a0288743cf322e5U, 0x1f02ddb1bc857ff0U, 0xbc3ca87ebc127c53U, 0x3b9f69e7bc0adc13U,
  0x1d936f00bc2b2a9dU, 0xbcb9adab379bd0baU, 0x1ac1d89abcb8bc8cU, 0x3bc0b90a3c8bd687U,
  0x3a09d03ebc09eaf1U, 0x3c979fc23c1eefddU, 0x22f6809fbce9addfU, 0xbb4bb8cd1c2c0768U,
  0x2409478e3d889ef8U, 0xbc798fe03c14da7dU, 0xbcc5cf1f3c879177U, 0x3d411070bbbba17dU,
  0x3b44d1101b117dadU, 0xbb77294a9c4d1bf2U, 0xbc9f50863bfe8e7cU, 0xaf6233fa3cd4f3a6U,
  0x29403dc6ba19ef45U, 0xb966c824397078c5U, 0xbbf83b943c577c19U, 0x3b411f56bcb0867dU,
  0xbb8177181e0d25f2U, 0xb17c76fdbc82d171U, 0x3c4592cdbcad1f57U, 0x291bb6b8226077fcU,
  0x3b15e931bb9638a0U, 0xbab83b46bc94439dU, 0x3ca031163b3ad19fU, 0x218490e0bc2c0bd1U,
  0x20ed084c1796b8caU, 0x3b03c0ac3b325be7U, 0xbcf8cfecbbe5cf73U, 0x1c1777343987400aU,
  0x1bf213853c4cc03aU, 0x3d5a0b70bb836356U, 0x3ca4d9f03ce32b4eU, 0x3de0be291d4e4a11U,
  0x3c9a7d85bc8417baU, 0x3aa4af733c2eb12fU, 0x3b216f87250f081dU, 0xbb74d0d8bd13c189U,
  0x3c8089a4a21f6bf4U, 0xbae6bae23d6253ccU, 0x26b431dbbd249175U, 0xb2052890bca2d1d5U,
  0xbce353c23b51271cU, 0x3e19ee43bbca21cbU, 0xa2983a1b3d177f39U, 0x9f0fb59cbd293642U,
  0xbc7b4708bb270dfeU, 0x3af55bd9bbf232deU, 0x9d77a21ebb836d7eU, 0xbcd9400cb78577b2U,
  0xa1eb668fbd315e47U, 0x39dca2083c0cd01fU, 0xba2e04d9bc47fbc0U, 0x3c740c4fbb8bd934U,
  0x2270f1d9bce64160U, 0xbc288a8c1bd6d39dU, 0xa42e53283dfd3385U, 0xbc9139f83ce3f432U,
  0xbd1924913cc689a2U, 0x3de724e83bea23c3U, 0x3c7fddfd1b9c8808U, 0x3c0f5c841c06458aU,
  0xbd20042f3c26095fU, 0x1d01db34a3ca3fc6U, 0x1b164cdf21a8194aU, 0xa2948ef325d06d7cU,
  0xa608b4ada5b62fffU, 0x246cfc55a5a289bdU, 0xa619b33e9adbc3f3U, 0xa10e2511a588b4e7U,
  0x244319a3a64445b5U, 0x1c192d84162cc813U, 0xa544eb32a615a38dU, 0xa386e10624920cffU,
  0x9f2ef70ca5bf65b0U, 0x9f875040a5066cccU, 0x9e0db93c19364668U, 0xa541dac9a67203d6U,
  0xa3783c70a449f766U, 0x9b08f75e984d8e8fU, 0x1947f439a650310aU, 0xa34a9caea43e2aafU,
  0xa39b8d58a3ef5550U, 0x2462a5699d4528ecU, 0xa62e5973a516e934U, 0xa5639d76a698ad17U,
  0xa574056a977f83ecU, 0xa718fcdea5c1aa63U, 0xa478ae9b9b2ddf24U, 0xa42d543a1ed00814U,
  0x1885e5c4a5352b54U, 0xa02b8135a459f2f6U, 0xa4bc5b34a5f8e372U, 0x21eff12aa5390e82U,
  0xa078fb7c2323fdadU, 0x1abbd0c6a2e7c0faU, 0xa5b70728a5dff6c5U, 0xa68894a8a45bdc76U,
  0x1b885457a68d120fU, 0x257beb369f33f852U, 0x99af76d7a4a17dbaU, 0xa3976612a0b9baacU,
  0x9e2ebf53a4da1209U, 0xa439203ba48f0d21U, 0x1c11d774a4a48fd0U, 0xa4a1a8421b98b7f7U,
  0x21757a7fa05cde72U, 0xa4fe25eba51f61f0U, 0xa455c823a4f38855U, 0xa304bc73a50c4c9eU,
  0x2489633a99808b5fU, 0xa62d2360197f96e9U, 0xa53a6e2ba5df8b6aU, 0x2786b4bfaec32b93U,
  0xac47db09aa49ee90U, 0x2af028b4afb76e28U, 0xb077d6eab1236a45U, 0xb00556962d84d8f4U,
  0xb04af9be9a3375d5U, 0x2984ca49af367ba0U, 0xb01ecac4afe630f0U, 0xac591bbc9b1a09ccU,
  0xaf64d08bb16d7a0eU, 0xab71f7532e42b590U, 0x2b7fc422b03f113eU, 0x1d9c0949aff38b21U,
  0x971cf9d31815cba1U, 0xb09056732e61af76U, 0xadca46bcaf5b5914U, 0x9e9cd609ac4848a8U,
  0x1f8f45c0b09b5bb4U, 0xae79f6a1ae4727ebU, 0xaff31996aea6463fU, 0xa9e7246f1a074117U,
  0xafad1af4af9988a1U, 0xaf711263b0ef799fU, 0xb0762478a733bcb6U, 0x303c56da2f7bc0d6U,
  0xaf6516b59c2b6796U, 0xaf3a4a552ab2d70eU, 0xa708c05caf255266U, 0x299e77c3afded19bU,
  0xaf88b34fafe62354U, 0x2a062568b09e4ca7U, 0xa20e26d4aaedbd26U, 0x1ec2e9a32e8b2014U,
  0xaf44fac9b0385e98U, 0x30cfd9d1ae386301U, 0x19e77028b0318d71U, 0xaf8e2f46aab6b80cU,
  0x9e3bb278ae4f68bfU, 0xadfaf2b22b0bfe17U, 0x2b43c942af5a13f5U, 0xae28bd26affb0d0bU,
  0x1f8a30a8aec7435cU, 0xaef6c97f2042f4acU, 0xa8aede9d2cbb39caU, 0xaea4b49caf22918bU,
  0xaea05921aed7a04bU, 0x2cd991212fdad07aU, 0xafb1da3b19768999U, 0x3119c8b01ffa8d32U,
  0xaed0034cafc25f1cU, 0x1a8215ada2d243fbU, 0x9ed8053a1ae45120U, 0x9f0c3444a40b566aU,
  0xa3b3a4e8a5092672U, 0x23f5dbf2248d6d99U, 0xa4cf5b699956610eU, 0x228c750c246ed77dU,
  0x23c4d0a7226aaf1dU, 0x1e981b8a1db4eb34U, 0xa4424f5ca4e5f0d0U, 0x1fb6af212262f232U,
  0x229bb6eba430d356U, 0x17536d8d23009d17U, 0x1c2505691cc02532U, 0xa65c436ca4c00d02U,
  0x2281600aa40052e6U, 0x9b857ee39843f52aU, 0x1903ec16a3f3c957U, 0xa336ce10a358ce69U,
  0xa3a635b522e89886U, 0x9d65311b17d82c21U, 0xa48756e6a44cf955U, 0x24029da4a4b12d73U,
  0xa3b10588972120c2U, 0x2596da93a35b9590U, 0xa3abf153a08c11a0U, 0xa43de747a0880001U,
  0xa22fb27d24bf5760U, 0x1ba6340c23dce9ceU, 0x237f607ba4a14ec9U, 0x9c369ba62410cdb0U,
  0x9cafbcaea207ea97U, 0x9b01f7e7238edd3dU, 0xa5f151e6a3dfaf66U, 0x2415c2d6a3f8e9e2U,
  0x1c9147f6a509af02U, 0xa4900063a04dc2dcU, 0x229dd38a235eee84U, 0xa3dc38422040a7d4U,
  0x1e965de3a45b5d0aU, 0x22d4b5f0a3c200a0U, 0x21b160c9a474cb94U, 0xa39506661f5b763aU,
  0x215838e7a1dc4886U, 0x23b0af2ba500cd7dU, 0x24055170a3817612U, 0xa388a0f9a4e53740U,
  0x2464ee2c1f0e97c3U, 0xa56e41e01d06fbc7U, 0xa1c5921fa6222383U, 0xaf5530383db843c9U,
  0x399b614731e59348U, 0xac9202383c826129U, 0xbb1711c13bfe07f3U, 0x3c81b0ecbbbf9bf2U,
  0x3bd14dac9d554528U, 0xb19848593cf4cff6U, 0x3c1db49d3ac4893aU, 0xb91ab636987ae1c2U,
  0xbd0d9ead3bdcf03fU, 0x379c020b3c532275U, 0xbddf2088bbb0aa43U, 0x9f1df6903d149c86U,
  0x1dc282cb9c8c32feU, 0x3ac9413abc904c9aU, 0x3c983ca73c8b58fbU, 0x195ed93bbab90dc3U,
  0x9efcc9363b121e5cU, 0x399146a0bd6136e3U, 0x3c356a903d819d50U, 0xbd40d8fb21a9ffaaU,
  0xbc509f893c914f4aU, 0x3c8e8cba3bd72752U, 0x3b31a507b154948cU, 0x3b9f8406bc938b3cU,
  0x3d04cd169da334b4U, 0x3ca5340c3dc35374U, 0x384008d9bc1338fcU, 0xb1ac34cbbc460960U,
  0x3d0a1b793c18559bU, 0xbce38c103b8f6283U, 0x21bf9a5bbdc42cdcU, 0x9fc774553a6a5a85U,
  0x3bf793143c8d2765U, 0x3bb6ae613c5502edU, 0x2184a7893cc93537U, 0x3b87fe613b3b2be8U,
  0x19384581bd1df92dU, 0xbd8e1facbdf43920U, 0x37a4c4853ce3356cU, 0xbd69cfc93c32a0aeU,
  0x1f9bfe86bc28e2d9U, 0xbccf7a429940b07fU, 0xae7a9499bd802a7fU, 0xbc1c7d1ebc0d89e9U,
  0xbd5ad8acbc9e9555U, 0xba4886d83a953bb9U, 0x383cb7042082acd1U, 0x3b2e4c861f9564f7U,
  0xbc867f1c3ad1a36aU, 0xa79439a9aff191ecU, 0xabb252ccaf983a64U, 0xaeb7603eb148df74U,
  0xb1770507b148c523U, 0xb07acf82b10b2025U, 0xb0c3e8d2a128b1ebU, 0xa99070a0b11285a8U,
  0xb1af218cb0d3953dU, 0xabc5f05f2000665eU, 0xb0bc6e7bb18cf0ddU, 0xb08c8759b0a5501cU,
  0xb0a4bec8b096f667U, 0x22b85f45b0cb5fe4U, 0x9fa244c29993186aU, 0xb214e0c9b07b5214U,
  0xaf1b6ea7b02aaa8fU, 0x1de26c79ac0d94c6U, 0x9e7cd8c0312a645fU, 0xb0845144b04e4b4dU,
  0xb1ba7b66af16a02aU, 0xb10e6aae18a097d9U, 0xb12a37c1b0f0d80aU, 0xb1ffa564b145277bU,
  0xb0bb6ce6a6a9a68dU, 0xb1da9406b05b48cfU, 0xb09e4ac29e162a8bU, 0xb0ab1a85b00d2d11U,
  0x26f67686af92f218U, 0xa9ae55ffb0f877deU, 0xafc91119b0f3c92eU, 0xb116be54b0cd2924U,
  0xa1202d6cb0888890U, 0x9c197d16afc66bb2U, 0xb0b89d2fb039b370U, 0xb1708f01affd1dddU,
  0x9c8a24fcb1fc6860U, 0xb07c0b7c29899399U, 0x1d74efbeafb1fc6bU, 0xb0983d8db099a60fU,
  0xb058d9e3b12b8a62U, 0xb059585cb194a041U, 0xa12b8996b07caac0U, 0xb0a91c0899c6dafcU,
  0xa8482d0ab13b1e6fU, 0xafff88ce30ac3b14U, 0xaf7ba4feb0e9a236U, 0xb0ee4ac4b1f34d8dU,
  0xb1b229ea1c0fc35aU, 0x32e8601a9db36cdcU, 0xafd0e032b1398f30U, 0xa10d837ea4a4dc4dU,
  0x9df9a8d0a14ce210U, 0x17dc5793a602d11cU, 0xa62ac38ea67a222cU, 0xa59d3a5ba5c803b3U,
  0xa595d97f9a8ff205U, 0x9e145ba0a5b4b9ffU, 0xa62cb647a3031154U, 0xa0075a089c381317U,
  0x9f6767e0a15235d4U, 0x9e1d00f6a5901197U, 0xa16e472d1f3f1d17U, 0x1a09f22ea54c7cadU,
  0xa15435261cf6d137U, 0xa685b44da604322bU, 0xa23b714da5266857U, 0x1d73e57a1d1f6287U,
  0x9ab6f1a7a62db520U, 0xa47a310fa4443723U, 0xa5c75d7ba509cc79U, 0x9c441ba42206bd0aU,
  0x9b686a46a57fc8bcU, 0xa6040eb1a67a86baU, 0xa6b3fd3a1f71dacaU, 0x9c789588a2c4548cU,
  0xa1884b3aa1800a35U, 0x9e4ca21b9afdb614U, 0x1a35b966a195524aU, 0xa2106c2da2c388f5U,
  0xa50280caa6241effU, 0xa20edad0a61a493eU, 0x1ed9a320a241e977U, 0x19c614e3a47fdea4U,
  0xa5ddd2eea5de53a8U, 0xa6410f40a50a0eadU, 0x1e35e7049bbf36b6U, 0x9b9041619db0dfe9U,
  0x1d3ba564a4d3ad0cU, 0xa4a9584699e25f0dU, 0x9a561055a57472d6U, 0xa4b3fddba105090dU,
  0x97c3c327a55d7718U, 0xa5194dfba1510209U, 0x1ec50fc69851ab2cU, 0xa252e516a59f033fU,
  0xa49b4ce3a5216f0cU, 0xa440a77da67edd87U, 0xa5f8fb459cacc190U, 0xa67a667b225e5404U,
  0xa4fb039ca618a3beU, 0x232030ccb5087517U, 0xa777b0aea4a5d8c3U, 0xa035f170b4cd95deU,
  0xb4b5f17fb612e3a4U, 0xb32f8c73b5c782d8U, 0xb310d184980b1ff2U, 0xa4ac9e32b597e9aeU,
  0xb4f20bbfb4faf9e6U, 0xa9bd91f81e46fb7eU, 0xb4862ea3b62d1687U, 0xa7740cceb573a8c2U,
  0xb2934da1b65f9023U, 0x1af09402b5d1b185U, 0x1ebf74b922a1d59aU, 0xb675027ab54b671dU,
  0xb545bde9b3979a45U, 0xa289de3bac00954dU, 0x168c1faab5e0d21cU, 0xb3a11430b49027ceU,
  0x34fb6137b47dadd3U, 0xb415c88b209528c1U, 0xb5da4a2fb5bea830U, 0xb58baa43b60bcc4eU,
  0x34746968a47e0bbfU, 0xb5c25492b5488a20U, 0xb595d67d193cda66U, 0xb479b2d1b3ad8ea6U,
  0x289ecf2cb4d937eaU, 0xa4d08798b3e68449U, 0xb5e94b7cb59a8bceU, 0xb3808dfbb624871dU,
  0xa172ed1eb05b1deaU, 0xa0e0cfb8b55adc6aU, 0xb5be8962b481ec51U, 0xb643237eb3459df5U,
  0x9c591322b60fa6cfU, 0xb4ca209d298a364dU, 0x9fbe20e2b4901ae7U, 0x34556764b429a5ceU,
  0xa76bef11b5b5bbfaU, 0xb36697dab5b93635U, 0x199b9ec4b491c636U, 0xb44ab2ec9da27679U,
  0x209758d1b39dd415U, 0xb5a67cd6b44f2ef9U, 0xb4dcc2f8b487aff9U, 0xb47eb018b62961cfU,
  0xb4c340481b6e6bbcU, 0xb62d3e011f23c9daU, 0xb3d7a52ab5210b66U, 0xa17c1f94a6ca091aU,
  0x226c07bca33d0702U, 0x9cf54c30a7c633cbU, 0xa513ee7aa740715eU, 0xa6e76e1ca66605feU,
  0xa827df839faff080U, 0x2201d01da7ec3daaU, 0xa8990bbca860a127U, 0xa19a3025a0dd5423U,
  0xa5d426a0a829c8c0U, 0x211d747d26b21482U, 0x213a9eb5276c9177U, 0x1d4b4df6a56ffc6fU,
  0x9a0dd9be1fcf4b9cU, 0xa886473aa7989fcfU, 0xa47316d3a72e3f0aU, 0x9b16dfee1ac81e56U,
  0x1eca8342a78599d3U, 0xa590a732a4a0a0cdU, 0xa785a2a5a7337bb4U, 0xa13c5c349a11424eU,
  0xa572eca6a776f394U, 0xa7978b1425ed97f5U, 0xa8b1f9991f17313fU, 0xa74de7e326b48604U,
  0xa77eaad820b18109U, 0xa58c7e40a33367c7U, 0x206e289ba55dd658U, 0x9b5e45d1a5f6f3a9U,
  0xa651e4e5a70bad66U, 0x9c6a4f83a689f632U, 0x208723cf1f6b1b22U, 0x2183e0032392d921U,
  0xa69e215ba7e5bddfU, 0xa852feb1a703599bU, 0x191a294ca7e7f8d7U, 0xa61c86fea26e1342U,
  0x1ad17fff246babe9U, 0xa4bff1782118053aU, 0x2355b1d6a5aa12edU, 0xa61dd83ea7607a5dU,
  0x1c9aefcda7c7dc4eU, 0xa6f3e2f09ab136faU, 0x1f23c18221258d6cU, 0xa680314da7a38db2U,
  0x2459024ea733e93eU, 0xa5df8e1ba888c718U, 0x2622eb369d8d3f20U, 0x28b50e001d372fd4U,
  0xa6641afba7a99db3U, 0xaf904e9d3dcc04dbU, 0x3a3281dc36b2e67bU, 0xb3746e063caf16f8U,
  0xb913c1fc3b72adaeU, 0x3cde0c7238837c58U, 0x3b091a4421b3754dU, 0xb1d116913d24e2fbU,
  0x3bcc7f6a3c5420d6U, 0xb85c14942067b517U, 0xbd4293393c127c0aU, 0x39058a763c42f236U,
  0xbdc93dc4bb910e20U, 0x202dbc173d118a24U, 0x1f4d58a39ec279abU, 0x3b0b0b58bc53e1f7U,
  0x3c8387a53c92b9b6U, 0x1f96318aba9c6d17U, 0x9d0ccc03bb20692eU, 0x3c37a7fdbd6781d2U,
  0x3c669ac93d80aa6eU, 0xbbea58a2209d1296U, 0xbc82ae853c950e33U, 0x3cbfd6763bdbec10U,
  0x3b44fbc6b22b2cd2U, 0x3ab0ee86bcd0add7U, 0x3d29db879a4c5c34U, 0x3ce650283dda67ddU,
  0x3874824fbc58912aU, 0xb1ff3362bcc354a1U, 0x3d12c4b73bf9959bU, 0x3b93c8813beaf7f6U,
  0x21b375bcbdae9bc2U, 0x99aca6c4bc2960fcU, 0x3a143cf03c72b479U, 0xbab7befe3cc65db9U,
  0x9ab6a2303d003dcbU, 0x3c7364be3b27ac9dU, 0x20bd581fbd5a4894U, 0xbd9ddbc0bdef37ebU,
  0x38dbb96e3d09bfadU, 0xbd8cf6183c10b088U, 0x989df78dbca2d505U, 0xbd06b89f19c51926U,
  0xadc0a9d3bcc0622bU, 0xbc82513fbc6cbd9eU, 0xbd7f81c2bcb5939fU, 0x3c932fad3bfe2726U,
  0xba26a25198eb7d6cU, 0x3b77398a9bb00366U, 0xbcf42e333bf17ce1U, 0x1851e52a2535068dU,
  0x2154b9469d03fe88U, 0x9de5add526f6e885U, 0x26fddc07a6c38e55U, 0x2659528425fafdefU,
  0xaa17bf82a1fce571U, 0x9f0a556fa7a5094bU, 0xaa961c74aa660f24U, 0x212dae859bcabc7fU,
  0x2533ef7f288a047eU, 0x1973a2e9a9bdce7cU, 0x211ac9f4aaa49217U, 0x9ea78527aa1354b4U,
  0x1dca86371d83da18U, 0x274856d8a679d843U, 0xa89fe406a7b40b2bU, 0x9fff05b32235e7a6U,
  0x1f38d09927861094U, 0xa46ce9daa74b95b2U, 0xa4bad270a97cfca8U, 0xa1f5fb7599aefa4dU,
  0xa8dab6f2a9c99278U, 0x288ac9c6281fc3e4U, 0x284c061a9f48caccU, 0xa793a947a98758beU,
  0x27a0401b1db9a9d4U, 0x25c9851d23938d41U, 0x9f8e35b1a6f01f52U, 0xa29dc889a67931d4U,
  0xa952145ea750a007U, 0x1d36ab972740a4aaU, 0x1e10840c2460d0f0U, 0xa0a9243da89aa90eU,
  0xaa2c1d3eaa25a9b2U, 0x27cf72d6a920b6a6U, 0xa26c2ce4277ab102U, 0xa707f025a304e7dbU,
  0x18da3ce124afa76aU, 0xa86c72d51c58c3c0U, 0x192d4be7a92b18a8U, 0xa2d29364a99fe4e6U,
  0x1d83fa1a2584e4daU, 0xa7bb8b701d97c0f6U, 0x9aad22af240e1b64U, 0x27a82c3da72dafeaU,
  0xa8b6bf9925b1e240U, 0x242add41278567dcU, 0xa7ecec76210ef9e2U, 0x27988ee7190f5c26U,
  0xa94406f5aa4221b0U, 0x9dd59e2bae8ecb9aU, 0xa619d2c9a501ac41U, 0xa4b3269cafbcd946U,
  0xb00534e7b13393bdU, 0xb061a67eafe229b6U, 0x309ed8ab22351594U, 0x2299e97caeb3ce87U,
  0xb12c7eadb0d3c0f2U, 0xa71f1ace1c85edadU, 0xb001e21fae67bf7bU, 0xa66e52d3afbb00a7U,
  0xa6ac67bcb04fbd2dU, 0x9f53a29eaf22c952U, 0x9f1f679a9ac744b4U, 0x2f8baaddb10fb332U,
  0xae44f558b019035fU, 0x99ab045aa55c3e57U, 0x9f6c2490b1a18326U, 0xaee6852faf37d387U,
  0xafe7ddd8aeeb8ed4U, 0xa84b9eb7980cd605U, 0xb0cfb996af88bd41U, 0xb07d591db12197dfU,
  0xb03500c4a30e5e05U, 0xb0b4b64fb0d906c5U, 0xaf905928a077b8c5U, 0xb09676822659b410U,
  0x24eb9f8caf792947U, 0x1a81867cb02191f1U, 0xaf1846af30f5333eU, 0xa757a444b0ddbc18U,
  0x9837d728ac8d421dU, 0x216c1e1eadb21f68U, 0xb04aca12af5645b1U, 0xb130aa4aaf859ba8U,
  0x9b371cc1b0749b8bU, 0xb01538de26f0062cU, 0x97b1cf9faef54a37U, 0xafa5fb9da593a89eU,
  0xa6073738b0155721U, 0xafc67c1eac5d1e37U, 0x9883afe5afc956f6U, 0xaf95f87f1e9861bbU,
  0x1eca7fc5ad66d984U, 0xaee2526aae545792U, 0xae8e68e0b00ee54bU, 0xae628762b0c431c1U,
  0xb06bac781ea4f685U, 0x303891221f9d086cU, 0xaf9d9290afd13191U, 0xa1ef6769ae136161U,
  0xa5dd8960a488bc3aU, 0xa3fe9479b012eae5U, 0xb084ff11b02fcdfcU, 0xafbc0826afb8342cU,
  0xb015f82f9e930f8dU, 0x9e3811b62f38b331U, 0xaff6acbcafb08b3cU, 0xa693f6461d8a64deU,
  0xaf1612c2af4ac091U, 0xa610230eaf288de4U, 0xa64d929faf5b2706U, 0x1fd9fcd9af91272dU,
  0x999ec47422055a64U, 0xafb14b5cb01f165fU, 0xae1ed71daf432f81U, 0x1d289d7ba4d4a986U,
  0x1e23e062b055c42bU, 0xaea52dc3ae7b03d4U, 0xafacdcabaecd84b4U, 0xa82b39e09a3a060bU,
  0xafb7fa02af813e7cU, 0xaf2ed502b05e5553U, 0xafdc03fda2a659c0U, 0xb065bbccafd88eecU,
  0xaf15112f9ba561b0U, 0xaf75464325f06ee0U, 0x245220f9af0b1b30U, 0x9acc4bf2af86d7bdU,
  0xae9f0f21aeaf0fc5U, 0xa6c48b81af801618U, 0x222ca794ac5e365eU, 0x20b58b8baca5b611U,
  0xb029b541af144b75U, 0xb01d27dcaf6fbc87U, 0x1c979ef7b09b64ecU, 0xaf739c2125d3d526U,
  0x1d04c7ceaf299b6bU, 0xaf772449a4dc2fd1U, 0xa587179caf227c06U, 0xaf362017afc32b47U,
  0x1ac0c11caf94beaaU, 0xafd8ef909e48136cU, 0x9c4fc12dacbd3cf2U, 0xaf2c0e00af457357U,
  0xaea80309af3101e5U, 0xae3d0448b0b6744fU, 0xb04af2f997353e9eU, 0xb00a04339cb9035fU,
  0xaf712aa1b0213da3U, 0xa5b1353fb312406eU, 0xad87abdda60b4c93U, 0xa47c1daab5801fd8U,
  0xb5faca1eb51941f0U, 0xb1d194f8b53793e9U, 0xb38a5aab9e0c9591U, 0xa796d168b53298ecU,
  0xb5bd4c7ab5749fb9U, 0xad4ff3e82184503dU, 0xb51fae64b5b30e33U, 0xa8b9cc20b4166639U,
  0xb3a7d8feb5c11c34U, 0x1e7a1e9db4e011ebU, 0x18a0ccb81674fcd7U, 0xb605541cb5aaf166U,
  0xb4adba85b227de32U, 0x9b47335ab3b8f761U, 0x98c69b6bb5f893ffU, 0xb41a92ecb47b8d1aU,
  0xb5a05bbcb275e4d0U, 0xb481386d1b3ec299U, 0x33741ea3b55f4945U, 0xb55bab88b55393c0U,
  0xb6579387a8e72b20U, 0xb5e1e275b547a40dU, 0xb50a23ad211577a2U, 0xb40f48afb3d29c62U,
  0x2988e804b427db59U, 0xa7cedadeb5860087U, 0xb404db27b5a3a02eU, 0xb4415026b58e4148U,
  0x9ab17623b4f9c8e1U, 0x9aa85475b48ed02eU, 0xb578027ab50ace7eU, 0xb4bbeee6b39a368aU,
  0xa0aea212b5c412b5U, 0xb4b102982bee76f1U, 0xa1b0e6dcb4bdfaf0U, 0xb515674bb52ab192U,
  0xa823af58b4e44640U, 0xb50294a6b5737fb8U, 0x219f5754b519b89bU, 0xb517c24a1b53fbd0U,
  0x21d85351b4a17d09U, 0xb49b83c0b5572797U, 0xb5381a21b4e05596U, 0xb43dc004b63cd7e7U,
  0xb4646a8698f9ab30U, 0xb60539f39bd3ed36U, 0xb4cd7b013390eed1U, 0x9f82d3fe2c1c8c6aU,
  0x2acd7c16298f0ea8U, 0x282a113eae1c37eaU, 0xac64b61c2e704342U, 0xae658c83ae41bd7bU,
  0xadd2810ea1cadedbU, 0x9b6420aa2d1731a4U, 0x2dac02532d6e3508U, 0x2b2df6bf9985517dU,
  0xad0a24beaf00d7c7U, 0x2aa167522d6f4394U, 0x2b1febeaae37acb3U, 0x9da6b6512ae09feaU,
  0x221b7ae39c34486eU, 0xae0089632dcd5d64U, 0xaca185902c5d6cbbU, 0x9be103222bcf4c96U,
  0x995cd6f8ad3cd088U, 0xac1af5c3abaf4a96U, 0xae1f7691ac2b4304U, 0x2bbfd1901d13c398U,
  0xad82fe082d5a8e03U, 0x2e0ec0c6af0b9bc2U, 0xaf600e84a6b73b89U, 0xae2f6ec3ae383db6U,
  0xad91efb41f9c5bd0U, 0xae26898cab4a7ef1U, 0x20c7a106abf2ec36U, 0x1b3000b02aea3048U,
  0x2cb59a1eae3a37a2U, 0x2b66ff5aace6b08eU, 0x9bb1e9342b770589U, 0x208d8509ad04745bU,
  0xae115c6e2d8fd8d2U, 0xae2a90b0acab144bU, 0x1a19b8e3af4ce6d6U, 0xae0d9d1ea8cc7d88U,
  0x982519062a6d42dfU, 0xac75eef52b56b3a3U, 0x28f22c05ad68ca4fU, 0xac283063ac1d09a6U,
  0x21a12407ace7232bU, 0xadeec888227a3b11U, 0x194c49e92c480126U, 0xad54dcd3ae2900b9U,
  0xac8b42daad640d70U, 0xac04ba7c2dfa0b4eU, 0x2d8e23c41f68c0ffU, 0x2d2667189ce3d46bU,
  0xad2255f6aec2249fU, 0x1cbad2e4a5234f55U, 0x99b988d1a26a98f7U, 0xa09ba2a1a64763c3U,
  0xa58f00b324fdcee6U, 0xa6243a66a627b5a0U, 0xa6cad99721b2bdf9U, 0xa2044f9ca8700ae2U,
  0xa71b79a3a6c4b0b7U, 0x205dd43298022640U, 0xa5c5d42aa4a53490U, 0xa3c35ae8a5d09ba5U,
  0xa43b4eeea622f784U, 0x9ccdef40a611e226U, 0x983e9d81218a0eceU, 0xa74b2af8a4f068ccU,
  0xa5cc713ba5e4aba0U, 0x99b2e8769a13b31bU, 0x9da6e594a5b306b8U, 0xa5886514a5d86435U,
  0xa75951a1a5349bfcU, 0xa4ef4592203b6f99U, 0x27c7b2d4a77b5917U, 0x2580b888a801811eU,
  0xa55139ba1e316d87U, 0xa6667beda59cf837U, 0xa5d2b1981b9c0bf8U, 0xa60183c2a2169d27U,
  0x983d0886a5c2f250U, 0x19c65cd7a7543adaU, 0xa5e8fa732419470eU, 0xa4cb2d7a260a0e63U,
  0x9afcec34a3ea5f31U, 0x9ae9c751a68c47ddU, 0xa675d3e6a61544c0U, 0xa68240e4a5863a08U,
  0x199c79f6a654791cU, 0xa586fc189e7c6578U, 0x99f1f130a5bc634eU, 0xa5a57ac5a291e19fU,
  0xa31d495fa609bbb9U, 0xa5972da0a64be30dU, 0x20052ee8a5d9e5dbU, 0xa62b93169bc236b6U,
  0x9d01d6bfa4a23481U, 0xa66f6de6a61a0c1cU, 0xa694c0daa60cc659U, 0xa59e8716a60b27aaU,
  0xa7f0701a9ab9aa1aU, 0xa69e970d21a30c3dU, 0x269f53a7a6befe14U, 0xa632b99ab89ed0d3U,
  0xb55c1a5529bdc2dcU, 0x228ff43bb9455155U, 0xb9c1775eba44e766U, 0xb953d982b9a185f4U,
  0xb9513f4297747d71U, 0xa82ec432ba98cff7U, 0xb9eb8446b9b15c4bU, 0x348c56c39d9a7528U,
  0xb8e99560b91f6a3eU, 0xab64aa79b9c3c3dcU, 0xb892dcfdba83a7b5U, 0x99a42cb0b9f22aecU,
  0x9c11801da09f9928U, 0xb90d74efba0869feU, 0xb9014a56b69526b4U, 0x212d68fab42ee575U,
  0x994deeb2b945a3d3U, 0xb8381fdeb9146baaU, 0xba29bd2ab8306141U, 0xb879f619135000acU,
  0xb9e1b8d2baa8555bU, 0xb9952320ba849adfU, 0x38bca659a76db543U, 0xba59dcdcb9af396dU,
  0xb9b11ceb9b08a1f5U, 0xb9484716b879a7a2U, 0xb3835729b9390db5U, 0x29ea1c94ba17be95U,
  0xb904854cb9868ce5U, 0xb7f87231b9d940b1U, 0x99cd4a08b8b710e4U, 0x1836fe02b9203bd6U,
  0xba6695a7b990a624U, 0xba8058a6b8caa0a4U, 0x9a938d00b95d1e18U, 0xb987c73cb60838fdU,
