/**
  ******************************************************************************
  * @file    model_pendulum_data_params.c
  * @author  AST Embedded Analytics Research Platform
  * @date    Mon Jan 15 12:54:19 2024
  * @brief   AI Tool Automatic Code Generator for Embedded NN computing
  ******************************************************************************
  * Copyright (c) 2024 STMicroelectronics.
  * All rights reserved.
  *
  * This software is licensed under terms that can be found in the LICENSE file
  * in the root directory of this software component.
  * If no LICENSE file comes with this software, it is provided AS-IS.
  ******************************************************************************
  */

#include "model_pendulum_data_params.h"


/**  Activations Section  ****************************************************/
ai_handle g_model_pendulum_activations_table[1 + 2] = {
  AI_HANDLE_PTR(AI_MAGIC_MARKER),
  AI_HANDLE_PTR(NULL),
  AI_HANDLE_PTR(AI_MAGIC_MARKER),
};




/**  Weights Section  ********************************************************/
AI_ALIGNED(32)
const ai_u64 s_model_pendulum_weights_array_u64[4613] = {
  0xbd8c9a02bd9ea23cU, 0x3d1008063d63a748U, 0x3c929b5d3cb985e4U, 0xbc5fedb63d8c812dU,
  0x3aa4f7003da3bd55U, 0xbbb51502bd97bc27U, 0x3d307ee13d2311caU, 0xbd3053953cfe9b0fU,
  0xbc899d833cb2a64fU, 0xbc990f5b3ac9d03aU, 0x3d8eac453d0b634fU, 0xbb10124f3bd39333U,
  0xbd24202c3c2d566aU, 0xbbcd44953c78a2faU, 0x3b20764e3cf3cac6U, 0x3dc37d0ebbb5d855U,
  0x3d79f27abda088bdU, 0x3d99bc673d21d434U, 0xbdc4a2bf3d02eab5U, 0x3c08441bbd6a09cbU,
  0x3caf218cbc46419aU, 0xbc6b0b263b677142U, 0xbc997db6394346a2U, 0xbcd30642bd8369a6U,
  0x3d33b3773c942d88U, 0xa77cd005ab056f93U, 0xab0c8134a695bf73U, 0x27695639a77e56beU,
  0xa85e7b0b29461bd8U, 0xa89be448a905bdb0U, 0xa8f1beb125add60fU, 0xa88aaa36a8834a42U,
  0xa96fd1faa5c728f4U, 0x2b8844dca706450cU, 0xa797d6f6a89bc7e3U, 0x2bc59c56a882534aU,
  0xa88a32c8ad22ab7cU, 0x2c1fe72ca6b2adaeU, 0xa88065fbaa1ff00aU, 0x2611e533a8c8ba6aU,
  0xa4cec08326377260U, 0xa8a04554286cd158U, 0xa7ddf9daa90a666aU, 0xa6e92869a75f9756U,
  0xa8a5ea34ad20264eU, 0xa6c218d9a685a7dbU, 0x2536e3b4a8a60829U, 0xa409bd6ca821a89eU,
  0xa8991192a8244d86U, 0xa8961d34a8d53068U, 0x37956bba35a87eb5U, 0xb4859482b6060440U,
  0xb627ac6bb35fdf6eU, 0xb7adca57b6a7ec2cU, 0x36279c42b4be6be6U, 0xb12e8660b6421bb3U,
  0xb4e299863739089dU, 0xb68401d635faf0e9U, 0xb5df8884b35c1a27U, 0x3540c02eb790eb16U,
  0xb5db534d361aeff0U, 0x3472e137b520bb24U, 0x352a6ab6b48f916bU, 0xb384b08e3531482cU,
  0x344cd65135d1bff8U, 0xb67a51d4b546f2ffU, 0xb54115b036522c45U, 0x3670c3e3b770be1eU,
  0xb4c5646033a21368U, 0x360a6410b6758f60U, 0x350b497033400b1cU, 0xb521f22eb6370f7dU,
  0xb5510f56b3ff29a2U, 0xb61a97b0b49525dbU, 0xb66fc8ec344710d9U, 0xb0016b91b336a8eeU,
  0xb1ac16022fbb5f6bU, 0xb303eab63341b896U, 0xb1540bc2b1e60f0fU, 0xb12bc925b123ea31U,
  0xafdce5b0b21bbe8fU, 0xafb09afe30cce3e8U, 0x336a12f1b02ac673U, 0x32c2b819318529f5U,
  0xb2e68ffcb20f399dU, 0x31b52a38b4304f46U, 0xb1b2ef133288ade3U, 0x2fce6c732f05a727U,
  0xadfc8668b21db777U, 0x2ea450c83410ae0cU, 0xb10a06b3b0b28080U, 0xaf80bacb3281efa9U,
  0xb001d624313e0a06U, 0xb0bd1752300ec2e1U, 0xb256083cb2773402U, 0x2f65434f2e4bbf4bU,
  0xb15bf781b139e079U, 0xb032c00f3180ffe5U, 0xb1b7e8f5b0aa1c8eU, 0x30dd4060afe1185cU,
  0xbcfbd6f1bcd4d2ccU, 0xbc9609b33c371d60U, 0xbd803b363a958f32U, 0x3d82dfd6bb90bd2dU,
  0x3cd069533d977c02U, 0x3b50c068bbe2993aU, 0x3d2c12f8bd0dc3ddU, 0x3d4a19f43cb77b90U,
  0x3d66f1583cff53f3U, 0xbae80d303c4228c9U, 0xbc75f83ebc93da48U, 0x3b05b6a2bd9a1c10U,
  0x3c9d7af43c95506eU, 0x3d10085cbd6d8574U, 0x3c8b009dbcb4817aU, 0x3d1b61163c1a7659U,
  0x3d0bdaefbced104bU, 0x3d731b21bd1ecf88U, 0xbc0c0f5e3d085625U, 0xbd834bc73bb2d15cU,
  0x3c39be853d0279e5U, 0x3ce8ab22bb710973U, 0xbc606c103b451496U, 0xbc7fa616bd012a2bU,
  0x3d9b849d3cb16c91U, 0x32b7614231756345U, 0x3211e340b057b682U, 0xafdab009b14768dbU,
  0x310e3362b282fb14U, 0xb2b60a3e309a7beaU, 0xae1e31a9af50139eU, 0x2f499140b139c431U,
  0xb1415d3cb0e2bccaU, 0xb22059d7b0270e5eU, 0xb08cf49e30cb639cU, 0x31c5f1aeb246a4efU,
  0xb095ab6eb1f62411U, 0x303346d82d6214c9U, 0x2cd7c0cf33054ce0U, 0x2e2c39d33258c7d0U,
  0xb050b698b0578bb3U, 0xb059c27e3003d1e4U, 0xb0821a08b22fe7efU, 0xb0867cf6aff1cff2U,
  0xb1987ae9b092792dU, 0xb0e8f79a2c92cf1eU, 0xb02061e4b16bc321U, 0xb0d67832af6a1cfbU,
  0xb14952b7b0f23557U, 0xb021ca7bad8deefcU, 0x3b827aba3d0842ddU, 0xbc111638bb81635dU,
  0x3ba10b9e3bf400d2U, 0x3c36a31c3b76d779U, 0xbcda7a8fbba07248U, 0x3b2508143c54080dU,
  0xbb6b1092bc70ad02U, 0xbc875822bba67c88U, 0xbb2cb5103c74bc11U, 0x3ae226e3b890cda0U,
  0xbca8810abb45e9e9U, 0x3b939ad7bcb3693cU, 0x3b3f8395bb978e8dU, 0x3a16fb44bc59aee5U,
  0xbac4bd2a3c4e5242U, 0xbd0316703c3b22bcU, 0xbcc22ecd3d1f7a30U, 0x38aafb003bea5dc6U,
  0x3d05ae1b3b16ae2eU, 0xbbca4d943d4b0e9fU, 0x3c0172653b442fa9U, 0xba8296413c8f4e84U,
  0x3bc41d473b0d9f0cU, 0x3c50844b3ba094eeU, 0x3c93d4da3ad95e12U, 0xbbc4ee5aba661501U,
  0xbbf188ceba534201U, 0xbb71f158397eadbaU, 0x3bd9dd44bb44ca94U, 0x3b8469ec3b98a63eU,
  0xb969dcdcbb0561beU, 0xba5e0506bc19a8d1U, 0xbb6b72f638f3f711U, 0xb7dbe8ecbb489f16U,
  0xbb196432396afd68U, 0xbb725be43c15730eU, 0xba7c4112bbdcdf3cU, 0xb96df004bab38dccU,
  0xbb2ea5abbbbbd536U, 0x38e124ba3c1f90c5U, 0xbbccefcbba1085cdU, 0xb9d0e526b9f2543aU,
  0x3b034b97bb3c430bU, 0xba9006f0b964e3e1U, 0xbafe8be2bb185f93U, 0xba9d5564ba2d5035U,
  0x3a67ab14bb76f126U, 0x3a03096cb9922364U, 0x3a1c7868b9b54bb6U, 0x3ba46ec9ba48e27cU,
  0xbcffe298bd0e8e2fU, 0x3c3434433dafeff6U, 0xbd2663143cf786e9U, 0xbd4ff7693d1b6494U,
  0x3d0110ff3ce4be8cU, 0x3bdec76cbd68e2b6U, 0x3cb567153c66d014U, 0xbca2d954bb99c704U,
  0xbd040781bc18c9ceU, 0xbca667063c6d9b76U, 0x3d74f3353ce99d00U, 0x3c0685b63c9e5b53U,
  0xbcb37e4fbbd99819U, 0x3a2d31f63d9572b4U, 0x3c027a673c6d01bcU, 0x3e6b29c83ca53ea4U,
  0x3d8afcf5bdc05fa6U, 0x3d808323bb46ab73U, 0xbd96760b3d03f80eU, 0xbc84d2783d2d7d77U,
  0x3d098987baaef7d4U, 0xbc9630c73cb04dcdU, 0xbba566fcba03ca46U, 0xbd344cffbd14edc2U,
  0xbd1055e83d283164U, 0xbb3a5836bbe9c397U, 0x3bc22e753ca49bedU, 0xbbd69f473b7be8f5U,
  0xbc2e57453be5c622U, 0xbd05f15b3c80641aU, 0x3b855c34bc8d4a6cU, 0x3cac00ae3c8b13dcU,
  0x3ca3d7ad3caa288fU, 0x3c9f25a83bc36b00U, 0xbc1b8d6a36589540U, 0x39994384bca8a0ebU,
  0x39d14398bd33888bU, 0x3c37722f3c5cf991U, 0x3c026397bc0770ecU, 0x3bed16bababcfd41U,
  0x3d121542bb8b27c7U, 0x3c12acd7bcb3cb05U, 0x3c577d3abc8d3db4U, 0xbc342e4d3cc10639U,
  0xbc9bd54e3bd7c1b2U, 0x3c8df6ee3ccf4e03U, 0x3c8c51723b113eccU, 0xbc059e82ba2d45c2U,
  0x3bff22743ac62f69U, 0x3bda9f3c3c8deb47U, 0xbd913d28be04a86aU, 0x3e3a5a9b3d442ec9U,
  0x3b9ee6e9bad09f0eU, 0xbe3c13a53d3e101cU, 0xbdcd4e323e44f4e4U, 0x3b6f5982bd89a554U,
  0x3d922de73e37e23aU, 0x3c80cb0a3de25d86U, 0x3df9761c3d9dfeb3U, 0xbd553f823d96dadcU,
  0x3dc414903e0a5457U, 0x3bc47d96be157c8bU, 0x3cf8ccf83d8c811aU, 0x3d860f60be1954dcU,
  0x3d132b49be070653U, 0x3e40aa1c3bb5c5bbU, 0x3dd90876be1e0535U, 0x3bed96d8bd899c3dU,
  0xbe0a0db63daa207eU, 0x3db569f9b83c4000U, 0x3d030ce83d5d437cU, 0x3ce7bf143c358ff9U,
  0xbbee14df3c2d2025U, 0xbbf6b193bdb3f03cU, 0x3d70bbd23caaa2bbU, 0xbde3ac2a3c4b18b4U,
  0x3d8b09513dcb7a19U, 0x3d2e32fc3cf0e824U, 0x3d2f6da23dbb85cfU, 0x3d07edb53e0e886fU,
  0x3b36d040bd800ae3U, 0x3d10f9e3bc2b290bU, 0xbba0c39b3b06096dU, 0xbd3a74513d202a87U,
  0x3ccb21e4bc32eb4eU, 0x3dee13143c9d9252U, 0x3c2b6311bd34962fU, 0xbc83c4bcba8928e8U,
  0x3c2e73eabbb384afU, 0x3a79a4293cf0a1dfU, 0x3e7b5eb13c50c390U, 0x3d3a0ac1be06825cU,
  0x3dc1c7a0bc9ec31bU, 0xbd6425163d0806ecU, 0xbd07ca5fbd83854cU, 0x3d0a3642bc009eb8U,
  0xbc2762da3738e780U, 0x3c16b2713bb3e3eaU, 0x3cbe8317bcc0130fU, 0xbd2c6ab33d4a7d27U,
  0x3de2454d3aa82d4dU, 0x3b87a915bd499470U, 0xbd01279fbbb149a3U, 0x3b9e8dc6bc0fa623U,
  0xbcb6e625bd10026bU, 0x3beff3123d013dc8U, 0xbb75938c3cd91eb4U, 0xbb91f4c9babaf6e8U,
  0x3db99628bbf1f11dU, 0x3b28f3113a659fcfU, 0x3b61bf2a3d8d2d5fU, 0x3d306a76bd6529efU,
  0xbaf948a33c8565a3U, 0xbbb91b79bd007042U, 0x3c70091f3c550f78U, 0xbdb6e2323ba44236U,
  0xbd1591d83e014764U, 0xbd1885e2bceb9a12U, 0x3d7e59babc95b9f2U, 0x3dc4b3213d055564U,
  0xbbde4fc4bc5c1d3eU, 0x3c09fda83cb63dacU, 0xbbefed513b86f76aU, 0x3cde9efabb017d8eU,
  0xbb5ac79f3ba0a7e0U, 0xbd22fbe5bb9f5bdaU, 0xbcec50c63c869329U, 0x3d6022c93b2e5a06U,
  0x3c9798e13ceaa5a8U, 0xbdab7d523c8450d3U, 0xbb684568bc9eadd6U, 0x3b2f0aefbd0fd902U,
  0x3d41cc8c3c482e3aU, 0x3ccaf43e3c901b21U, 0xbc0b5cdcbad88d73U, 0x3cbf6c4fbc18b1e6U,
  0xbb95c2febb5189bcU, 0x3b9828633c07b9a9U, 0x3bedaed0bc2b6f46U, 0xbbc8acf23b7e2e63U,
  0xbb063428bc1d94d1U, 0x3c39c442bc858e66U, 0x3bc763d3bd6d511eU, 0xbca769df3bdca153U,
  0xbc046556bc2afb04U, 0x3b2da10e3bc33eb9U, 0x3c84cce9bccb70a6U, 0xbd0f96b839b073ceU,
  0x3d13635fbcb63defU, 0xbbbdeb83b9b6b072U, 0x2a6bed62aa01056fU, 0xaa799ff42861e515U,
  0x297ddc95a95f4460U, 0x2968e7bfaa18d7c6U, 0xaabb6727a88b6c62U, 0xa6b0769325e14bdbU,
  0xa550f6daa893cf04U, 0xa73307c1a781d3eeU, 0xab840317a7a68000U, 0xa9c7fca4aaa8cebcU,
  0xa899dc73a946d30bU, 0x2655c73a28766b0aU, 0xa842e7e7263c502eU, 0x26bd155aa9b38e3dU,
  0xa79f52e82a4ef295U, 0x29df836f251e8de7U, 0xa87599ec2a725fb8U, 0x2a1fe17328d2b9d1U,
  0xa8e9292da78012dbU, 0xa937b0dea9170c03U, 0xa7134e1e25ffbda4U, 0xa590871fa89f50a4U,
  0x264ea36028b2da65U, 0xa621fed626441b3eU, 0x27571df2a8646cdeU, 0xad25166fad507aa2U,
  0xabe63d2fac436318U, 0x2d74e6adadaa38d0U, 0xac4f0a792d1ab43eU, 0x2c995d45ac57571bU,
  0x28c13c56ac1a7759U, 0xac3f86112db83495U, 0xad0eaf7dac35e863U, 0xaca8efbdac73476cU,
  0xabf8c437adf58a11U, 0xac231175ad419491U, 0x2cb3d9a5adac4781U, 0xac310b05ac263a56U,
  0xac573ea1ac9bd5ceU, 0xac3932fcac62e69cU, 0x2e0e2675a8144237U, 0xab07cc7eaa9b6b27U,
  0xac677ccaad994bddU, 0x2c993804ac06e7f7U, 0xae1ba06bad432f51U, 0x2a896419ac34e2b6U,
  0xac31fa31acd5f922U, 0xac3c3cb72b1ab7dcU, 0x2c0040732bee7dfdU, 0xad016bcfab5d1953U,
  0xa6880892a750b83fU, 0xa693a4a9a6fcc36cU, 0xa71ddd01a6819d92U, 0x253cb316a74cdb10U,
  0xa597ba5f2374fbabU, 0x26086c5ea4e81964U, 0x268dcd8026d8ca63U, 0xa71138c1a67531a3U,
  0xa6a2565a261b5487U, 0xa7493ec2a7142575U, 0xa75ee866a74cc0e6U, 0xa6aa830fa6c52b68U,
  0xa47924bc267c991aU, 0x26078824a6a65362U, 0x263b3e08a75c8d8cU, 0x2767751a239acb40U,
  0x262aad79a6305ad7U, 0xa7202f3ba7460ecaU, 0xa7432876a6927bb3U, 0x2625f081a757491dU,
  0xa3c519dfa3ab2776U, 0xa34ef695a5b7d4efU, 0x2580d9c7a5e3cc9dU, 0x269566a5a41e1cb2U,
  0x26213c7e25d98584U, 0x3e27fc043e49fbc7U, 0xba369b2ebcb07928U, 0xbd96fc10bc1ed3e4U,
  0xbd2b2936be2e6899U, 0x3e0ad804bdefd5a3U, 0x3bff79cc3e0c89c6U, 0x3cf137353d9b9c00U,
  0x3e4aedd5bc961e60U, 0x3d0a9317bd366833U, 0xbd2482f53e1d787fU, 0xbda6691cbc932500U,
  0x3cd4e4fe3e71be76U, 0x3d01b8a43c46713aU, 0xbb31ce44be24f644U, 0x3c88b5d1bd412194U,
  0xbdbf90373c1b6c99U, 0xbc495cef3d1f1fc4U, 0xbe562891be3ddd77U, 0x3e53fca5bb790522U,
  0xbde10eec3e5c8f40U, 0x3d00ff56bc7b6e0bU, 0x3d21bb103c73fa73U, 0x3d06f88e3c1fbad5U,
  0x3e3202883c02c45fU, 0xbcdd8fb7bcf4808bU, 0x3ca2492e3b629b62U, 0x3a8f6dd0bd46215fU,
  0x3cb4e9d6bb869b46U, 0x3b5ea057bb3718aeU, 0x3cf8d67abd03af21U, 0x3c6547c63cb1ed83U,
  0xbb6f0f70bc11b4d4U, 0x3c5800c9bc35e2e6U, 0xbbe14dbf3cbc98feU, 0x3c9f10ce387925b7U,
  0x3b32c18a3b2b08ccU, 0x3c93b55c3b7fb3a4U, 0x3c181f093b92709cU, 0x3c2c485d3c9d9de7U,
  0x3c0229483b0fa5f0U, 0xbd7a5b823c520872U, 0xbca933273d832e25U, 0xbd05a106bca525d0U,
  0x3d127a1cbbcbf0a9U, 0x3ba69e763d3be1dfU, 0xbc36e1d1bbe01e0cU, 0x3b511cc83c57a912U,
  0x3c487f123996e7e0U, 0x3cf0c2093cad3fb8U, 0x3c5101343b69710cU, 0xbd9c2e2cbd19df39U,
  0x3dd8ecb53d0f5704U, 0xbe0d6eb4bcc2aecfU, 0x3b6fd6ebbb0393f2U, 0xbc4ff7713dcb95dbU,
  0x3c06c83cbd1733caU, 0x3d188c5fbd78dd1fU, 0xbd0925df3d7b8d57U, 0xbc921b1d3dc32895U,
  0xbcbdee55bdcd6067U, 0x3d680bfa3ddebfc6U, 0x3d2c01babda990eaU, 0x3d6dbaff3d804eb7U,
  0x3d3e7a6f3e0c199dU, 0x3cf2feb63cc37b98U, 0x3d80f44cbb8ca65eU, 0x3db2b05cbd9d919dU,
  0xbce5494fbdafbfd7U, 0xbcb79f063d733136U, 0x3caf33e0be13e956U, 0x3ce038553d87cf76U,
  0x3d354cd6bcb73d1fU, 0xbd10068f3bab0998U, 0xbd952c7abdba3a9fU, 0x3de0cabe3999f9d5U,
  0x3d92fb993d1df203U, 0x3c870f59bd6e6c02U, 0x3cdba493bc12763fU, 0x3d247e16bc676e26U,
  0xbc379f2ebd47f8ddU, 0x3bbb1bbf3d7dc282U, 0xbbac494a3c06c1cbU, 0x3c8d8182bc0a0c71U,
  0x3bc307bcbc04246cU, 0x3cc175403a85c46bU, 0xbca325873cf050f3U, 0x3cb1595f386fae70U,
  0x3cb164d7b9fab198U, 0xbb00f95f3be0d3a3U, 0x3b516a673c829223U, 0xbe098ba73c8cd061U,
  0xbd0e86723de39d9cU, 0xbc67ba6a3c106676U, 0x3d38782e3ae53dacU, 0x3b93abcb3c9919ddU,
  0xbc7cbcc9bbd7c8c2U, 0x3c9581343cfe8943U, 0x3ca2c57f3b23aa65U, 0x3cae56be3d299e66U,
  0x3cfb445c3ae0873dU, 0xae62d121aeeec803U, 0x2eeade36ae05af19U, 0xafda722e301dc25cU,
  0x30d9184c2fc2c46cU, 0xaf5cb12cacc5e06eU, 0x2dab09222efebdf4U, 0x2ce57562ae54e419U,
  0xb021758eae0f3903U, 0xafd09bf52ee06430U, 0xad3ea6f8afbec4bfU, 0x2e9e766bafbfc708U,
  0xaf8014d6af3ee12cU, 0x2e13b566ab92147dU, 0xac10c7c9b025345cU, 0x2c2c28132ec6acc5U,
  0xaea6ebe12be019daU, 0xae1c140e2c8269acU, 0xaeadfbd4af1f67f1U, 0xaf24d200ad99beeaU,
  0x2f039483afac5802U, 0xaeb6a4492ae4f81cU, 0x2b8bb3702f8be19eU, 0xae9f1d34add8c897U,
  0x2f0ec459aeb62b3eU, 0xafd2f3ce2db75deeU, 0xaf0e3684ac230c51U, 0xaee0276aab2185abU,
  0xaf18e570af486a64U, 0xaee7ef33ac611645U, 0xaf239f3dae45c8abU, 0xac88c89a2e3b08faU,
  0xad81c2aeafaf8c7eU, 0x3141e864af21efebU, 0xadc1d4fdae0a14c1U, 0xaeae7c38af60c841U,
  0xaf804f78b04f490dU, 0xaf5cbbe1ad82a79eU, 0x2ffadf152d11ae09U, 0x2d1b28e5b0a0c10dU,
  0xac811c6b3119586dU, 0xad2b9c9baeb11ff9U, 0xada0a3012e4ac35fU, 0xaf8a80c8aee0bb7bU,
  0xae950f70ad10ada1U, 0xaf16a4f32edc3c91U, 0xacad0f942a1d2962U, 0xaede9be4af167507U,
  0xadee3d0d2db92565U, 0xaf593abeaecdb8c5U, 0xad779597ae071588U, 0x3a3433a539bb4570U,
  0xbab265d9395b9aa4U, 0xb9cf36eb365a324cU, 0x3a1fc4b7ba220f49U, 0x3b170d34b9599b9bU,
  0xb91dcf17b9a6bf1eU, 0x3891ddfe3b1b2a24U, 0xb9eac174b999bee0U, 0xba09d29338679fb1U,
  0xb9f72306378126dbU, 0x3a592482b921526bU, 0xb999f466bad52939U, 0x3545c2cdba395fb7U,
  0xba06d20dbb116876U, 0xb9922cc6b8e636fcU, 0xb9bd1e23b98dde54U, 0xb8d481fcb9b106e1U,
  0xba1906c2babc26fcU, 0xb8d20354b8d37417U, 0xba38a90a3a96f840U, 0xb980de3ab928a232U,
  0x38ba4dabba017291U, 0xb95152dfb9625b93U, 0xb9ba96aa3949fb35U, 0xb9aa89e938b9fdd0U,
  0xbe243f24bda97545U, 0x3c88234e3d800182U, 0x3dd1ee273cddd651U, 0xbca84e483d4aac2dU,
  0xbd0fb3473e4ba15cU, 0x3bb4cae2bdbe1e21U, 0x3d8c7a333dbd0870U, 0xbd613b963d564af1U,
  0xbd9baf123d073ae6U, 0xbd9c37973d489dccU, 0x3e383fadbc5697aeU, 0x3b26a664bc726327U,
  0xbc79c8a53c88aff6U, 0x3d03451abde0dbdeU, 0x3cc29ba53dd3f15eU, 0x3e110d433c3fadf0U,
  0x3db426aabded6db1U, 0x3e0348233e00030cU, 0xbd24311d3d5fb42fU, 0xbdee39bbbdf0c150U,
  0x3d51e4a43cf0f19fU, 0x3be56f303d0203d2U, 0x3ae00d743ca8232fU, 0x3d601d5dbd6b967fU,
  0x3dcc1ea23ce1cc08U, 0xb501596ab50c6e85U, 0x3615b91134032fe8U, 0x346c007db4dce377U,
  0xb5d2390bb51bd180U, 0xb58051bab3b13222U, 0x3204c32331fdc156U, 0x335a5d4db4d3b67bU,
  0xb5a3967433eaeb3eU, 0x36c239a53132468eU, 0x3598377ab5b30b7eU, 0x33c3c47e353366b7U,
  0xb388410db5756ecfU, 0x32c3cbc8b4c4f427U, 0x32a6325a34600ae0U, 0x31b462f0b4c59492U,
  0xb52015a5b4e51cdfU, 0xb2f101fab3a8d94cU, 0xb50d3df0b5e9f1f2U, 0x358f0cff32ea391dU,
  0xb48a362eb38f3b9bU, 0xb3532c7a318b8cbcU, 0xb459c9eab53f40e6U, 0xb404a66931cca8a1U,
  0xb3eca527b48cf5a5U, 0xb57a678b33bc4959U, 0xbd2b8ab6bd9236a1U, 0xbcf7d840bd9c6815U,
  0xbc1eb7dbbce81748U, 0x3cbcdc2dbc966d7bU, 0xbcedd110bd23ac50U, 0x3cf132993b9ce5f6U,
  0xbc89d37fbd33cf4fU, 0xbbacc055bc6b24e9U, 0xbcc89d3a3c824235U, 0x3d0b2ec4bd40e369U,
  0xbcef473abc7ec639U, 0xbc749d2cbd0ce27aU, 0xbc933392bd222c14U, 0x3d47dae1bcd9ce13U,
  0xbd5bc2f43d0ce22cU, 0xbd34fceabdca6872U, 0x3d77bbb93d621e2eU, 0x3d65e0943e00a2bdU,
  0x3d305926bda71a87U, 0x3d2089d63cd1095dU, 0xbd644c773d288b7fU, 0x3ddc738abd73d418U,
  0x3d18efa0be0a2d28U, 0xbaf66109bc5d9e51U, 0x3d23a21d3e211868U, 0x3c74eda0bb9ec863U,
  0x3b8e72e53b6cbc16U, 0x3b35100dbb679231U, 0x3d889d31bcf828e7U, 0x3d8b3d1a3d7bcd7bU,
  0xbbc9e0d83d1c5765U, 0xbcb6d6583d1571c0U, 0xbb175f773d19fd39U, 0xbdb8ec4abc1ebbb2U,
  0xbdb6b14b3d94f55eU, 0xbd861458bd4a2bfcU, 0x3d2446f43b7945f7U, 0x3d2344d0bcceec4cU,
  0x3d4309c6bb970363U, 0x3af1da81bd102c09U, 0xbbda34d1bd7c7090U, 0xbc23b4763c7aa73bU,
  0x3dafbda43c437cd0U, 0x3cbe6069bd4c4ed7U, 0x3c738aa43d2d33c5U, 0x3cc525dd3c3ee725U,
  0x3d84c877bc8e838bU, 0x3d8db9e1bcbdcc51U, 0xbd678cb0bc2c3addU, 0xbc1a4f7e3bb03ef1U,
  0x3d0560bcbd3cdf65U, 0xbd6e6eb53a852c41U, 0xbc4506833d771136U, 0x3d05c5afbc52e0d9U,
  0xbdde4565bc3944c5U, 0x3d9a9e09bd9d0e65U, 0xbd0229c3bda85194U, 0xbd20a2913c567be9U,
  0x3dd28dd93d3aac7fU, 0x3c3690a53cebc59bU, 0xba87042ebd4efe6aU, 0xbd0dcc5ebc0c6c31U,
  0xbccd233b3c6dcd48U, 0xbd0f3aa1bcf1b7baU, 0xbd0e86f73d92b826U, 0xbce088d23cbd48ffU,
  0x3d1734503c909d89U, 0x3c94d647baa8bef4U, 0xbd12f7733cd9c591U, 0xbd00b179bd8316b7U,
  0x3c40a056bc57cc99U, 0xbd5bdf663d319372U, 0xbd40a20f3d898b2dU, 0x3c6fcb15bcfe7e3eU,
  0x3cad861dbc198d68U, 0xbd6e92a7bc10f624U, 0x3d7eca7abc97c7f6U, 0x3c22ff2f3cc6d509U,
  0x3c9c1da4bce3fb83U, 0x3bf05d983cc71c2eU, 0xbda2bb7cbce79cf8U, 0x3cfc65893d0c2498U,
  0x3d36a570bb50d8daU, 0xbcce11ddb9b34babU, 0xbd836d9b3b32b873U, 0x3c68481e3aecd026U,
  0xbd5e62253a93bceaU, 0xbd1a94a73d8c6309U, 0x3d4767ebbd2847f3U, 0x3d31496c3d2e07f2U,
  0x3c8b2118bcba7583U, 0xbcb20fed3ca09abbU, 0x3d574fb1bc8986b2U, 0xb9c51c8bbc6986a7U,
  0xbc159b783cd81a8aU, 0x3c84ca99bd390a57U, 0xbca9bdb5bd17a5e9U, 0xbd185f50bd56664aU,
  0xbc2fccccbc654689U, 0xbcc441423ae992a3U, 0xbbc1f683bb93b5bcU, 0xbcf1e9c3bc9204dbU,
  0xbb2df6563cddc8e8U, 0x3c493d723d44d6dbU, 0xbd75619abce899efU, 0xbc6bf1b8bda37be7U,
  0xbc54d19a3bb08a2dU, 0xbd24df1bbcf7d9afU, 0x3d7f80e93cc13bf2U, 0x3d8147e8bdca57ddU,
  0x3d63e865bd37d169U, 0xbdd39fa33d3457d4U, 0x3c2276233d557913U, 0x3ce961c2bc8638c7U,
  0xbd0004afbd09b6daU, 0x3c4d2fd3bd12a152U, 0xbd02291f3cbe2274U, 0xbce44ac3bd2b8a3fU,
  0xbc55b8013ca125e0U, 0x3bd7b01c3b6136c0U, 0x3d7966a6bcee86dcU, 0xbc4b1a34bc6fbbccU,
  0xbd2eac92bbeefa88U, 0xbd117d6139d53e90U, 0x3c8bada8bd76ec3dU, 0x3c0ac536bd22a570U,
  0x3c9d7d813d25d310U, 0x3cf839353d544029U, 0xbc0d14ed3d217bf9U, 0xbd7fba133cc9c12eU,
  0x3bd2eb163cbc770eU, 0xbae193af3ca1973eU, 0x3bfa5fdeba6c980aU, 0x3d64c4743cf5a5e8U,
  0xbd05c4f5bd339fbaU, 0x3c3431c63d315951U, 0x3cbe627f3c889c8bU, 0x3bc962daba47f64dU,
  0xbd168d38bd1965e1U, 0xbd22ee37bc07f5bcU, 0xbbb216033da2d5beU, 0x3cac556bbb36340cU,
  0xbd1784ecbdbd045aU, 0x3c20539d3d153b33U, 0xbd280f6dbc5a4fc0U, 0x3d9b52863c28e88eU,
  0xbc4f302f3d0de380U, 0x3cc0d83c3cd6c15fU, 0xbd48e090baed93e2U, 0xbd03ae6fbd137f8fU,
  0x3c5b2ba4bd5914a5U, 0xbcfb13f8bd18b527U, 0x3cd60a50bb5d833dU, 0xbd2d960dbc8e3444U,
  0xbd6398bebdabe8ebU, 0xbbf83778bc308623U, 0xbd177578bcdb0f2dU, 0xbd3fdb293c362155U,
  0x3d5443a93db291c9U, 0x3da16570bdd3b323U, 0x3d0304c23b1f44cbU, 0xbda1c2abbcb88579U,
  0x3d060189bc9bd7bcU, 0xbbcba6a5bd26b11bU, 0x3bbfdde8bd7e4411U, 0x3cf5a4813d5931d7U,
  0xbb3d7b25bd07de96U, 0xbd9e6503bd30157bU, 0xbc7dd3983d7d6c54U, 0x3bb26d313cde4571U,
  0x3dc83c0c3c77b8b1U, 0xbdd8ebeb3d66044cU, 0x3c972a5c3d6ac2f6U, 0xbd14b947ba88ec17U,
  0x3d350c47bdc81cc4U, 0x3af7717b3ce4cce8U, 0xbd150d1a3d0d1b04U, 0x3c5b2e443be5a5c2U,
  0xbceb1948bcefeb8cU, 0xbd446de3bda9bf92U, 0x3cf75787bb9e8c2dU, 0xbd27e7953c9279cbU,
  0x3cb37b2e3c83682cU, 0xbd1a94453cba01a3U, 0x3cbd57c6bd84f9ccU, 0xbbc6c188bcb89b0eU,
  0xbbd83c8e3d345649U, 0x3d07cd09bc4825d3U, 0x3ab63377bca27ba2U, 0xbc83bfc53bb5fd74U,
  0x3c7cb7113d034681U, 0x3c1858b83d39c28eU, 0xbc9a52c1bd9d2a10U, 0xbca254bc3d236287U,
  0xbcd6ad393c8e8278U, 0x3c11cf8eba78a46dU, 0xbc4797d3bd3038caU, 0x3ca061e73bc11e3fU,
  0x3d2965ea3c54e8d7U, 0xbd1b14333c3d6b58U, 0xbc193700bb53b7c6U, 0xbd14fc99bc9b526eU,
  0x3cf478f13ca49bf4U, 0xbd19a2cc3d597decU, 0xbd7a591f3c48bd4eU, 0x3bd5779ebd25a499U,
  0xbd2e9729bd76fe96U, 0xbbb4a605bca1e4e2U, 0x3bf116d93b24653bU, 0x3c3c2fe2bcda9898U,
  0xbd4130a73d18655eU, 0xbd0b4a99bc1d7d4eU, 0x3bfcbbefbd3b28f0U, 0xbd09072fbc864965U,
  0xbd10dff7bd12a83fU, 0xbc3767713d01bdfeU, 0x3d071e66bb30ceccU, 0xbc0e9761bc9c4575U,
  0xbd503a1fbd2a5cafU, 0x3bfd2cbcbd232099U, 0x3cb3a9f5bd1c6d52U, 0x3bb010d3bd236fcdU,
  0xbcf9b6623a492ce0U, 0xbacf42063d1ebb84U, 0xbcd870acbd166432U, 0xbd11acfb3d40e88eU,
  0x3d3fe6f63d131f9aU, 0xbba048913c615fd2U, 0xbcc78904b9989ed1U, 0x3b394c43bc893db4U,
  0x3aabc1293dc39608U, 0x3c17ef7a3b8588fbU, 0xbc8199f1bd20a51dU, 0x3cd834003d140324U,
  0x3cc100463b9a7f8bU, 0x3c0871b0bd1e17d9U, 0x3d4d65e9bcf652acU, 0xb9adf9f5bca187b6U,
  0x3ce2bf57bda96a26U, 0xbd0b4204bd574706U, 0xbcc66a3bbd264562U, 0xbb6442bf3d4d2cadU,
  0x3c85c810bb2005eaU, 0x3ca0f273bd568b25U, 0xbd0d840bbd2aa962U, 0xbc093924bcd339edU,
  0x3c8d2592bcf0b9ceU, 0x3c963860bd74867aU, 0xbd3abc17bd47f62aU, 0x3cf044963d885313U,
  0x3cb62bc73d27039aU, 0xbc268e4b3d1fdac2U, 0x3b00b7663cee5441U, 0xbc8a190f3cd09865U,
  0xbc305ea53bb8a02fU, 0xbc82c6e53c912e20U, 0xbc84ec2ebaff586eU, 0xbd345f383ae52742U,
  0xbd5a1accbc572c78U, 0xbd168338bb3ce65cU, 0xbcab83173d384c3bU, 0x3c1f0e1bbc1190b8U,
  0x3bc8a0023ce81349U, 0x3cb9fc763d603083U, 0x3b3e9e6539df910eU, 0x3c2d2291bd0e4753U,
  0x3ae4c8583cce737aU, 0x3daa91f63d628205U, 0xbcc564523c4fb649U, 0xbaeb987abb957031U,
  0xbc6033f93ca51f02U, 0x3d16a7ffbd3aaff2U, 0xbcfd69c43c6167b6U, 0xbcb8dbf5bd22bf2aU,
  0x3d090a5d3d11b9dfU, 0x3d3098dfbcc4dc73U, 0x3d4627f9bc7e387cU, 0x3ae057923c8d756cU,
  0x3d1aade1bd2d6f30U, 0x3d5c7ea3bd4f6cfeU, 0xbc571f843d86801eU, 0x3b9889c53d7e59aeU,
  0x3d31d94ebc1dd5c7U, 0x3b96a61cbd25fc9bU, 0x39d342503c8ed31cU, 0x3c7d39843d2ab1e0U,
  0x3d5504a7bd5696acU, 0xbd46d24d3d6c28bcU, 0x3cbf33bfbc906174U, 0x3bd4e4c2bc2fe485U,
  0x3bd447d1ba526766U, 0xbd4a367e3ba08eacU, 0x3d493bf3bb115240U, 0x3d0b25e63d6a2eedU,
  0xbd3e748ebc2ac971U, 0x3c54e645bc8f296fU, 0xbd9a0b2abc5e0eb5U, 0xbd3d869abc9cd77fU,
  0x3d128dbe3cdb542aU, 0x3cb140093d22cca5U, 0x3d0f3669bc417c02U, 0xbd15a1793c32ab32U,
  0x3c22bb9bbd1046f3U, 0x3c195730bbd59c61U, 0xbd8b7d66bc385f9dU, 0xbc0085ebbb54a7ecU,
  0x3d22c567bad3e34bU, 0x3c91d9193d8625f0U, 0xbc9adfbb3c634b50U, 0x3d1e559bbd752d9aU,
  0x3d319727bd152f2bU, 0xbd323fecbc8ded61U, 0xbce5d61fbcbb2153U, 0x3c038ed93ca5b006U,
  0x3d35cc913b020030U, 0xbd695dfc3d5d6a03U, 0xbbaf8be03d33d4afU, 0x3c7e515fbb967957U,
  0xbd51986c3cd9a934U, 0x3bedc128bd5531bdU, 0x3b4756cbb961bd47U, 0xbcfbebddbc76670fU,
  0x3b91563bbd2b7294U, 0x39cf24b03d0a03d6U, 0x3cbe20aabc9fd3d9U, 0xbd4955e83aed1c31U,
  0xba9205383d3e0612U, 0xbc8f6ca13d7d1ff2U, 0x3c8685d63d791268U, 0xbbb22c1b3d0dd005U,
  0xbd9ecaba3c85fad2U, 0x3cb1a600bc6a5222U, 0xbbd27c983d1c8156U, 0xbcf0e3803d170951U,
  0xbc8fc5f9bd665305U, 0x3a7aa8b1bc6439e6U, 0xbc7d4a733caf3478U, 0xbbe6d794bac6c760U,
  0xbc9b41843d1531a0U, 0xbad468bf3d85d5f5U, 0x3992bbf1bcd35c0eU, 0x3d79f8293d9151bdU,
  0x3cf8b3fc3d86a1b2U, 0x3d4bb8b7bbe174b1U, 0xbcd197c43cb04aebU, 0xbd3f90ba3ce6b24eU,
  0x3c8b4c52bd96d899U, 0xbd1786e53c1f78a6U, 0x3b1ca6dbbd62ba9dU, 0xbd0936cc3d869adeU,
  0x3d9372fd3d374f16U, 0xbb865515bc855baeU, 0x3b856e5abb9df4baU, 0x3d98a581bd6a2f4aU,
  0x3d3002b53bf19782U, 0xbd3da5063d9a954bU, 0x3b82caf03d22a2cdU, 0xbd2f42133ce561e8U,
  0x3c89733abc9e51e2U, 0xbd8226383ca782c9U, 0xbd3a03a7bd0c4d3cU, 0xbd2ab19dbc57ef49U,
  0xbd0104afbcd01aa8U, 0xbd324ee0bd22fc6aU, 0xbcabffb0bd86de9bU, 0x3ce46e9dbc9464c6U,
  0xbd4fefe2bcf2f177U, 0x3cdc43103d0b1bd5U, 0xbd093cf63d7a0daeU, 0x3d20dd39bcd8f7f3U,
  0x3c32fb38bc87941cU, 0xbd50773c3cfb628eU, 0xbcc058fe3d332c48U, 0xbcff5b45bce88cfcU,
  0x3d64a6e03cd203c6U, 0xbd3427a73d2f6243U, 0xbd08383abc5feb32U, 0x3d39c834bc388edfU,
  0x3d167f433d9a749cU, 0xbd00270ebd3eee06U, 0xbd15ee5abc310d52U, 0x3d2d45463d35e7a7U,
  0x3cfe87ca3c576888U, 0x3a2d81b03d9a0c27U, 0xbbf8dfd7bc863e67U, 0xbb8e522dbc74705bU,
  0xbd8141a13d0d57a4U, 0xbcc066953cf88fe2U, 0xbcc05566bd2ab77fU, 0x3c7bad26bd04b7b4U,
  0x3c52a77e3d20ccfeU, 0xbce5c64d3c399f34U, 0x3d831f14bd1f205eU, 0x3ca67ac03c4e65b3U,
  0x3c9a02b3bca9fd92U, 0x3cc9466c3cebdf1fU, 0x3ccedba23d4510d3U, 0xbd06bed8bcb7c6cdU,
  0x3d3e95463b65c732U, 0xbce7805ebd00ceb1U, 0xbd396cf73b9ca8dbU, 0x3d7b7ea5bd6f7dd0U,
  0x3d00119bbd0b43c7U, 0xbc332bf2bc9a982bU, 0xbd7726a93cba8da8U, 0xbd05b350bcaf84a2U,
  0x3d6761e93c88215bU, 0xbcc69dcf3d3f726cU, 0x3bfb5bae3d2d7970U, 0x3b1c9a6abd5030efU,
  0xbb9d0de43871fceeU, 0xbca888abbc9359a3U, 0xbca47bc13cda9122U, 0x3d136375bca7d8b1U,
  0xbd13b251bd252df1U, 0xbc443e48bd2c84bdU, 0x3c9ea498bcf0cd47U, 0x3cdb5ba23c1c4c6eU,
  0xbcbc20a2bcdbb271U, 0xbbbcab8cbd481d76U, 0xbc9af0963c6cfb8aU, 0xbce87aa5bcde8b71U,
  0xbd0c9660bc83fc93U, 0xbd074dbd3cb938edU, 0x3cd08701bc304da8U, 0xbc8a91b4bcb4c7b3U,
  0xbd2a59c9bca8d309U, 0xbd93d5423ccecb07U, 0x3d352ac7bcf0f2f8U, 0x3d4e5c18bc612aa4U,
  0x3cacb7453d864235U, 0xbd460ca13ce57649U, 0xbd11dd68bccc2271U, 0x3cf78cf9bd226656U,
  0xbaf960dbbd910be7U, 0xbd34ddc13d29728eU, 0x3d69daf7bbec9bb6U, 0xbd376114bc8147c1U,
  0x3d5dd13abd3bcb1bU, 0x3b122b5dbd8c1d43U, 0xbd199fe3bcc7bd12U, 0xbcebeb573d09ad7bU,
  0x3c0587503d4710fcU, 0xbd6abd97bcea73f8U, 0xbd41d066bba2ae22U, 0x3cc3a29abbbcca47U,
  0xbb316f743d051323U, 0x3c9d75a4bc7aac48U, 0xbc2646f1bc9754b6U, 0xbd0a59dc3d469438U,
  0xbcc041e73d1a5eb0U, 0x3c44b678bcbd7350U, 0x3cf06de1bd90e190U, 0xbc4fca993cd62eb3U,
  0xbd187207bcee6915U, 0x3cc65275bc6ff033U, 0xbd05d78b3b989645U, 0x3d3aa1bdbd3a7aa6U,
  0xbb81ccf43bdc65faU, 0xbcb71eafbd873de1U, 0xb7c68746bc484081U, 0x3ba3578a3add279aU,
  0x3ba679dbbca0f39bU, 0xbd2f64b0bc58aec8U, 0x3ca36828bd061d58U, 0x3cb995583c7a67a5U,
  0xbd2603143d40bf07U, 0x3d67901bbd4363caU, 0xbc8b3ff9bd0f9fbfU, 0x3c64166dbd92b753U,
  0x3b96fadc3c1e1ecdU, 0xbd371702bcec25b0U, 0x3d40545bbcd997d6U, 0x3c1e9a163c1aac09U,
  0x3bbb4f693d2b063cU, 0x3d55b871bba63aa4U, 0xbce937383d0fd3dbU, 0x3d058405bce89c86U,
  0xbd1955c8bce61b83U, 0xbcac2b12bc6f419aU, 0x3ceff1e7bc647b09U, 0xba0421b2bbd50768U,
  0x3c72a8db3d326fd6U, 0xbc444599b99012c4U, 0xbd63b6bbbc8204a5U, 0x3cafdfa5bd13cea5U,
  0xbbd0e3bcbc7ebde0U, 0xbc5e2102bd0f2055U, 0xbd64ce1b3d1dd9efU, 0x3c73f578bdaeaa8aU,
  0xbd1f1e973d8d975dU, 0xbc442e19bd9c655dU, 0xbc99b64fbdbc3359U, 0xbcd41f08bc0b030fU,
  0xbc45e0373c3c3eb5U, 0x3dc4b3ebbc3dea2dU, 0xbde1460b3d33360cU, 0xbd039da2bbd543daU,
  0x3ca4a3883d5849c3U, 0x3d2a3387bde7b948U, 0x3a54a3a6bc7422b4U, 0xbd9110e9bd4180c2U,
  0x3cfb717b3cc5cff5U, 0xbe12bc013d253683U, 0xbe25e8acbce3ab07U, 0x3d2265d2bdb6591fU,
  0xbce6058fbc0a2c82U, 0xbace201bbc9d2ea8U, 0x3cc0a08a3d8e3bdbU, 0x3da57435bddae34dU,
  0xb6967fd1bcec15e3U, 0xbd8797ca3dbe9f1aU, 0x3d41a0a9bcb2c63cU, 0x3d4252b33cf85021U,
  0xbd49a7babdfef5b7U, 0x3c9cbb933d1b2c22U, 0x3d459d0cbcce5911U, 0xbdc1edccbe044706U,
  0xbca5bedf3e02828dU, 0xbca62bd3bc2663caU, 0x3db5a5873b6323a9U, 0xbc35fbec3cfef84cU,
  0xbcc3defd3d4be139U, 0xbc0d20cdbcaf22fbU, 0x3b5f23a1bd805dc8U, 0x3c8b24abbc63f4bdU,
  0x3cae75223cc53d33U, 0xbcc0851ebcc84c57U, 0xbd58e8c73d345a07U, 0xbc154e98bb8d2144U,
  0x3a91695b3b9c9282U, 0x3d378a94bcea88ddU, 0xbd3cc8763ce93418U, 0x3d4b70223cb09216U,
  0xbc2933e0bcf7cdf2U, 0xbc357dec3c6107b0U, 0xbd1ddbdd3c84b3eaU, 0xbc83a162bcd77a52U,
  0x3ce16d313c55633bU, 0x3d01957cbda90488U, 0xbd128bf13d866412U, 0xbd2a3116bd362068U,
  0xbd1a304dbdae0371U, 0x3d19b430bce6ee2dU, 0x3ce3bcccbd2fb5ddU, 0x3cabb375bcb6f580U,
  0xbcc27929bc2f18d7U, 0xbd2386c93d113b2dU, 0x3a087e22bcf53c53U, 0x3c8a7926bcba60d8U,
  0x3c9f9a0c3cbeac47U, 0xbd16251abaaf9865U, 0x3d9c811e3d0fa669U, 0xbda6857c3d8bf321U,
  0xbd65620ebc9861a4U, 0x3d06088cbdaa0bbcU, 0xbc9a10a7bae57649U, 0xbca502c9bcf2b44bU,
  0xbd512d803c8fed48U, 0xbc7bd142bc65704aU, 0xbca43280bcd2174aU, 0xbcfea2fd3d1202bfU,
  0xbc955a293caf2335U, 0x3ccabe9b3ceb0e62U, 0xbc79b406bcd6b59cU, 0x3d78d0893d41ea6cU,
  0xbcafd598bd96e21cU, 0xbd996fecbdaa2d39U, 0x3c280e483cff2cf8U, 0xbcd19bbe3cf8238cU,
  0x3cd61d793cb5b591U, 0xbd8106d6bc03077bU, 0x3cfdff96bbeecc34U, 0xbd0a45933d6b9254U,
  0x3c90aff4bd36fb02U, 0x3c1e1e7d3ba3be5eU, 0xbbc8298bbd5035ffU, 0x3d6c00843c480a38U,
  0xbd91c7a1bd2677c3U, 0xbde0b4d9bd1236d6U, 0x3de12964be277d6fU, 0x3adba4b0bd2a604fU,
  0xbc348afb3bc13606U, 0x3da7f32c3dc8de9dU, 0x3dc263f2bda08f61U, 0xbc243cb3bd1207a8U,
  0xbe284143bd2e013fU, 0xbb8e9fd83d368605U, 0xbd3d1beabc15b49dU, 0xbbfdbf03bd894061U,
  0x3cc346903d30b57cU, 0xbb9cde74bdc635deU, 0xbdcaa0e7bdb3284cU, 0xbd61a7b73d784748U,
  0xbcda11673c468677U, 0x3c993e23bcd4b17bU, 0x3c95e5ad3c435e94U, 0x3ce5e2bd3c8ed596U,
  0xbd1b76b9ba276d6cU, 0x3d24595cbd38a76cU, 0x3d157a14bd507f65U, 0x3c8fc5033c0c6793U,
  0x3cf993af3b9b0d3eU, 0x3c10a0f4bd38b579U, 0xbdbef79e3bfa53bcU, 0x3c48ab33bdd115b7U,
  0xbc5966a1bd586ec2U, 0x3cb8eb9a3c9eb0eaU, 0xbc0ee38c3db9d8e7U, 0x3d0b4d4abcb91d65U,
  0x3b6deeae3c03de09U, 0xbdfa1309bc884d5eU, 0x3d54fe5c3d86de19U, 0xbbb6198f3cb85237U,
  0xbc01b30e3cb88ffeU, 0x3d08df6e3c1bce7dU, 0x3d0f9cf1bcf1b382U, 0xbd3bf69cbcf07869U,
  0xbd308f153ce6d85cU, 0xbc11ad95bce462aeU, 0x3d061fcfbbeec7f4U, 0xbd623e4e3d3b3873U,
  0xbc977e7f3da4783eU, 0x3cfed39b3d8819b4U, 0x3c8354abbd54d736U, 0xbabc939e3b956ceaU,
  0x3d8240333bd601c0U, 0xbb29dac1bc453c50U, 0xbd00a580bc71e3deU, 0xbd4ac24c3ca491d6U,
  0x3c2eff423c8e9e73U, 0x3d06d583bc0c990bU, 0x3c6b7d8c3d08dd9eU, 0xbd12d6d23cb18fb7U,
  0x3c241cbb3cc1fcd1U, 0xbb3bc32e3d956fcbU, 0x3c44ee52bb6d76f4U, 0x3bb8a0aabbc43aa3U,
  0x3af41d20bd48c303U, 0x3d30f367bd31376dU, 0x3cc85cabbc857343U, 0xbcff899ebd1c5282U,
  0xbcb1aaa83c79c020U, 0xbd2a965c3d5e6d71U, 0xbbbd9addbc9c092eU, 0x3da39e0eba9ac999U,
  0x3c8f9de23abc1380U, 0x3d1475583c22b713U, 0xbb920d843bad5320U, 0xba2d53f0bc4d665bU,
  0x3c8924033c810467U, 0xbd347f243c28c14bU, 0x3d0c1a693cf8207bU, 0x3c88361bbd03c5bfU,
  0xbd23d17d3b36d71dU, 0xbd2a450ebd1f2f93U, 0x3cb60a5fb9d523e2U, 0x3cfc2a84bcc67f02U,
  0xbd2cd4e43b2ffca4U, 0x3c8e9f39bd94f9b2U, 0x3c6c18143cafb096U, 0xbc10a58c3d39f218U,
  0xbd0c07dd3b107f25U, 0xbc70a8423cd0beccU, 0x3c50a087bb92652fU, 0x3c4be2ef3a945037U,
  0x3d349e15bd486a59U, 0xbc8e9d16bcc392a9U, 0x3c7625ea3cff46b8U, 0x3cbad83fbca590aaU,
  0x3dcaac0e3d0e413aU, 0xbd21219b3cb7e79aU, 0x3ca5bd663d8e0795U, 0xbd0b4d10bd6067b4U,
  0x3be64f1fbcd7a6faU, 0xbd0235593c8509f3U, 0xbd2af58a3c73fdcaU, 0x3aeb34b7bc57c04dU,
  0xbd54cd523d1fd765U, 0xbb871323bd84f3c6U, 0x3d4c143ebccf5943U, 0xbb51d15b3d29cb19U,
  0x3cd4bdc8bcbc236bU, 0x3c85896dbc4ddc5aU, 0x3d82a72bbce1575fU, 0x3cf81c00bc87e172U,
  0xbda06da03cd015e6U, 0x3d5266d7b92d2aa4U, 0xbcd146033c14197bU, 0x3cc46e403c4dcd9dU,
  0xbcfa20cd3c84714fU, 0xba83377ebc8c65a9U, 0x3cfde81f3cacb6d9U, 0x3cf2ed633d392324U,
  0x3d16a5ab3d3c285aU, 0x3cce0e353c075c6eU, 0x3c9b91553ca9fa32U, 0x3bda41773cbb751fU,
  0xbc3954c8bb7f864eU, 0x3d5d8076bcbcaf7bU, 0x3c3d0e8a3d05bfeaU, 0xbcf19109bc8d5899U,
  0xbd1aa8e43bd1255dU, 0x3d19dae7bb9285edU, 0x3ca33c6b3ac5f8b3U, 0xbb4bfdb339aff33bU,
  0xbbd291193d0e7087U, 0x3d18891c3bc2e4a2U, 0x3bd05ca4bca15108U, 0x3cf7496a3da1cf7eU,
  0xbc5ce69abcc83ad9U, 0x3cb6ec58bcb4b938U, 0x3d35270f3ce24565U, 0x3d3c5d53bcad7744U,
  0x3b464e16bd0746f5U, 0xbcc61c00bc0b6a70U, 0xbcadbdc53db87ed2U, 0x3d787ec53cd66ec7U,
  0x3bcbb42cbd33a09eU, 0x3c8a6b393ced868fU, 0x3c9647f83cd1ef63U, 0x3d08b9bbbd181185U,
  0xbc303cd2bd90307aU, 0xbcafc21f3d612081U, 0xbc3c2a663d5bffe4U, 0x3d1f39133c396e2fU,
  0x3d027143bd4a05d7U, 0xbd5bdd44bc6d080fU, 0x3afb8b043d696882U, 0xbd966d103b8b913dU,
  0x3bb7cfd23d114a0bU, 0xbcd32895bc694528U, 0x3bf7e70cbc2e18d2U, 0xbd61b414bc8912caU,
  0x3cb93d3f3d112dd1U, 0xbd992de7bd457117U, 0x3d7fad0bbb1f2c98U, 0x3d23df7b3baae86aU,
  0xbc91aadc3d51a07aU, 0xbb9904f5bd45e024U, 0x3d6899103c5f47cbU, 0xbd4e6edbbd0376b0U,
  0xbd7bf3a6bcecf13cU, 0xbd678ee13daaff89U, 0xbca6268a3d0dad22U, 0x3cefbe77bd0c906fU,
  0x3cd26b2b3d36fa8aU, 0x3a76d0c0bc87a7a9U, 0xbcaab66c3c9d8d2eU, 0xbca96c14bcf5822cU,
  0x3d56d086bd47f56fU, 0xbcb82c0e3c2d9f48U, 0xbd0a5a513cfd4209U, 0xbd69c74dbd5ee7cfU,
  0x3d2aabdcba699907U, 0x3d2807edbd259debU, 0xbbee3fc8bb960c90U, 0xbc9dc3563d242f72U,
  0x3d2a36413d8f8d56U, 0x3cd8e9b13cbfcc09U, 0xbcb811ccbbfe9ee7U, 0xbd56450b3c86a992U,
  0xbcd57156bd276e58U, 0xbcb317633d8fbd6aU, 0x3b21da5f3c5f9fc4U, 0xbc7791483d09cabbU,
  0x3cdde40b3d151785U, 0x3ca614573c54025eU, 0xbd2c6d4b3d2e874aU, 0xbcfc7d1bbcc86a4cU,
  0x3d80bc64bc8e3a9cU, 0x3cb0b2103c18b55cU, 0xbc1774cf3cf60837U, 0x3d3a56f13cdb457bU,
  0xbc7322383b8a19b8U, 0x3c55d0273d0965cfU, 0xbd25140cbd26b8a0U, 0x3d137f49bc8b1e74U,
  0x3bbbb3f3bb8fd12cU, 0xbcdcfd463b4d75f7U, 0xbbf10b52bbfb2b70U, 0x3c845fda3caf335cU,
  0xbccd9c4f3d498c57U, 0x3a67bd5f3d1953c0U, 0xbc0f603d3a9a810bU, 0xbc996981bca44b0dU,
  0xbc8c2786bd50f116U, 0x3cf7daf43b2c1d7aU, 0x3ca753a5bd3f545eU, 0xbd4987edbd05da91U,
  0xbcd9a2853c5df0d9U, 0xbd19e9693d84a504U, 0x3cf85f443d5ddb47U, 0xbd81068ebd8545deU,
  0x3d05609abce88518U, 0xbd41516ebd024f02U, 0xbd3a4abfbc9beb04U, 0xbd08fc2dbd33b0ecU,
  0x3b25f0f8bcc4b4ecU, 0x3cd66cb63d4ec87eU, 0x3bde943abd0bb05eU, 0xbdba208fbcd63e50U,
  0xbd1498bf3d0bc626U, 0x3df4e9253ab3b7a2U, 0xbc244328ba89ee8eU, 0xbd26754c3da4d128U,
  0x3d898df93c0b0aceU, 0xbcae6a393d6aac3eU, 0xbcbf4e903bde7951U, 0xbdbe97a6bd79d864U,
  0xbd166b483b1841baU, 0x3d49cbc13cc0a863U, 0xbd1100e7bd810a70U, 0xbccd70e9bc4ced43U,
  0xbd5e2e8abc9c019eU, 0xbc2a2a6dbca363aaU, 0xbc31ecbf3bc9ef40U, 0xbce8c7a9bbddc6d9U,
  0x3c00ad4abdb7fffaU, 0x3d020423bc82d034U, 0x3c396bb6bd392d41U, 0xbd097717bc27c1ebU,
  0x3bba2974bcbbe689U, 0xbc831d2cba772a84U, 0xbd5bebe23ce68a73U, 0x3c0991ee3d31ddcbU,
  0x3d8f5de03d49b382U, 0xbd3ac8763bd12374U, 0xbd257915bd36ba86U, 0x3be9e6413ccaf497U,
  0xbc7bd051bd2bd6ffU, 0xbd6c10ddbd0b2756U, 0x3cf212073d0cd301U, 0x3b1d7ffc3d1d03d5U,
  0x3b449d86bd7a425cU, 0x3ca478df3d60648cU, 0x3cccab4cbcdbfb7bU, 0xbc3f878fbd5d95ccU,
  0xbd116eefbd125f07U, 0xbce3768ebbd44ea2U, 0x3c9e73403d3303a2U, 0xbd2454e8bc08f59dU,
  0xbd9106e3bd7806ccU, 0x3d3f394ebc5b701dU, 0x3c1beeda3cf8ed27U, 0xbc8f7fabbc7c86bcU,
  0xbd858d4abcb2b1d3U, 0x3cbad79e398b61ceU, 0x3d05deecbbc269b1U, 0xbd9e37fabd0f85baU,
  0x3d021aaebc82cc88U, 0xbbb29fd63cc7cf5eU, 0x3cb43d523c6f55b5U, 0x3d2ce518bd20da7cU,
  0xbd71acd83cb7c296U, 0x3b258d81bcb9b0b7U, 0x3cbb09963a568fa8U, 0x3cc3af243cf56837U,
  0xbd23da1dbbc25f85U, 0x3bcbf846bcb4adb4U, 0xba783f833b61d53eU, 0xbc6a168b3d07e556U,
  0xbcda7f743cb5cabcU, 0x3d4d20adb8ef7fa2U, 0x3c0cd4cc3ca256b2U, 0x3d3fecb4bcab675bU,
  0x3bbca659bd21378bU, 0x3d91232abc094dd7U, 0xbd3f6969bc60732aU, 0x3cfd98c63cfc7067U,
  0x3d79ae3bbcbcb297U, 0xbbde601abb9cb74bU, 0xbcb5ebf63d0ade9fU, 0x3c6058fc3cee7409U,
  0xbcbbfff7bd0bf6c1U, 0x3cc1c00d3c4469c5U, 0x3cb40bae3c624642U, 0xbce81b4e3d411cecU,
  0x3c6a46123c75a4ecU, 0xbd84c4753b89b019U, 0x3d0756bf3d6b53a1U, 0xbc8c09d2bd00c1adU,
  0x3bccf9b63c05fd0fU, 0x3c8e98723d203597U, 0x3cfbdab0bc8c8478U, 0x3c699109bc99a150U,
  0x3d6cc867bc010719U, 0xbcb5e9763c7f44d2U, 0xbce5e9afbce3fbdcU, 0x3c8c98d23a643570U,
  0xbb4442cdbc66c4ceU, 0xbd408b59bc0a853bU, 0x3d1ea24c3d61a8c2U, 0xbd344e033beb5024U,
  0xbc374a10bc0e1e30U, 0x3c8fe1903c6430a5U, 0x3c104fe7bd089df8U, 0xbd1aacf1bc931539U,
  0xbcf964603cc34151U, 0xbce6207f3d7ace45U, 0xbd284a37bbec6a92U, 0x3cd3d128bd57afedU,
  0xbd78ccd1bc07a341U, 0x3c7ed7f83c696654U, 0x3d8533debc571b0aU, 0x3d4de712bc23646bU,
  0xbba251dd3d3e5148U, 0xbc6677d63c3d322eU, 0x3b0783ed3c9db2c0U, 0x3d4b262e3caff412U,
  0xbcce59ddbd533d0bU, 0xb9dda490bcb2d658U, 0x3c2b9d47bd91d26bU, 0xbcf2a095bc7a07d5U,
  0xbd60415abd85adadU, 0xbc822abc3d0b96fbU, 0x3c4edb50bd71af59U, 0x3ceaa6883c812362U,
  0x3cd58daa3d5676f6U, 0xbd3323503cbfa029U, 0x3d4331a6bc39a411U, 0xbd89e32e3d3cb214U,
  0xbb823d673d80c0cbU, 0x3cd6974abd6c87e0U, 0xbd0e3812bb4d89caU, 0x3d1ffbb03cef28e1U,
  0xbd14a60cbd43af11U, 0xbcc04dda3c2f3debU, 0xbd5849473dbb3e83U, 0xbd06eee9bdabe12cU,
  0x3caf4ed0bd8b74adU, 0x3d3a788cbd9eb640U, 0xbbe2a1f73d07a266U, 0x3c0048f93d549018U,
  0x3d38754cbde39a3eU, 0xbcc019e9bc0f4a48U, 0xbb1803693c9488b6U, 0x3cdc780fbcc3ff9aU,
  0x3d1e7c003ce88296U, 0xbd1345a4bd793b7dU, 0xbb1b44903bad0cf8U, 0xbcb14962bdc0c781U,
  0xba872a08bd061caaU, 0xbd7fd2783d96be89U, 0xbb82a5ec3cb747d9U, 0x3d956e083cb1f2d6U,
  0xbccdffc43da2d53eU, 0x3c4f20103d174c43U, 0x3d8a7958bd64c793U, 0x3d485eb9bd8afaaeU,
  0x3d82a2813c8d7d1fU, 0xbae61d083caba4adU, 0xbbe297aa398fa40cU, 0xbd29ce11bd2f51f0U,
  0xbd8bcee6bc283fcfU, 0xbbaf9636bd8f8a51U, 0x3c97a0b4bd6352fcU, 0x3d327be2bc6e86ffU,
  0xbd249ade3d88897bU, 0x3dabb34dbcc1494bU, 0xbb289c5fbca338b7U, 0xbd56e9b93cf6a401U,
  0x3b9812e63d24a977U, 0xbd332581bcd7464fU, 0xbd619241bd1e8662U, 0xbd80d5fabb86a3c2U,
  0xbd966f12bd32334eU, 0xbdac995cbd86a6abU, 0xbd596fef3d827e38U, 0x3ce6c4fb3d15a341U,
  0x3dab6da3bd27589eU, 0xbd6304c53a470df1U, 0x3cd6df1e3d3429b4U, 0x3cb376b4bd9e343aU,
  0xbd033114bbd80eceU, 0xbc66a4773ca8e869U, 0xbd952f6dbc11aea9U, 0x3da32fe1bd3e8b52U,
  0x3c8cfe84bd66db80U, 0xbd8584e4bc91ec34U, 0x3d4fd3debd30dd90U, 0xbb56da63bc394163U,
  0xbcebe733bce89a65U, 0xb9dc46993d2a1c60U, 0x3ca6d1b6bd8c5261U, 0xbb91bc543d6e4f7cU,
  0xbdbae820bc94b228U, 0x3d28375abc8088faU, 0xbbba69a53c8d377eU, 0xbc86d3efbd86eed5U,
  0xbd0813163d0e8d17U, 0xbc69e1d73c79ba03U, 0xbdbb8713bd2a727fU, 0xbd201acf3d6df7e0U,
  0x3b913d5ebd08d571U, 0x3e0053d43d305ecaU, 0xbde0a1db3d8ad557U, 0x3c6cba193e0f0e49U,
  0x3c9294613d479df6U, 0x3c52d020bd14bb7dU, 0xbcfc7616bd3463c6U, 0xbd00e0053d828c5aU,
  0x3ba643523d1d0c20U, 0xbdf5928abd487e4dU, 0xbdd0f7afbd4c9264U, 0x3d966350bd410ae9U,
  0xbc20c5a2bd426a67U, 0x3c63ab27bcaf7a22U, 0x3d864b763de687f5U, 0x3dd890d9bd3caf63U,
  0x3d2cfd07bc82eb01U, 0xbd8805a33ccba6aeU, 0xbd19510e3c0a6fedU, 0x3d3f9eb9bd8596bcU,
  0x3b3b81773d049295U, 0x3d5d6ff0bd1f10eaU, 0xbd7eee94bd88b2ceU, 0xbd1ddf0cbdc560a3U,
  0xbd08e0803b9ba4e2U, 0x3c5dc6663d1600beU, 0x3d4cf0e63cb56cf9U, 0xbd60b301bc080c46U,
  0xbc51fcbf3d4d9559U, 0xbb0bb6303bcc05a9U, 0xbc950fe6bd94fcb8U, 0xbca3273e3c93f2adU,
  0xbcd5af01bce55a2eU, 0x3ca93137bb72bab7U, 0xbc78aee73c1ef4f0U, 0xbdb1d8e7bd35925cU,
  0x3d49fda5bc40811fU, 0x3cb79446bd025df4U, 0xbceba7d3bce9d7fdU, 0xbd025bde3ccc8395U,
  0x3cf2dde2bde01b72U, 0x3d6cf9483c949b6dU, 0xbd8e89b43d49cb26U, 0xbca75b7f3d2ab1d3U,
  0x3d4d90583d0eb717U, 0x3c0078dbbc8b69b0U, 0xbd9400a93da6bf17U, 0x3b541264bd510427U,
  0xbd4b8279bd4e222aU, 0x3c5c92ac3d207171U, 0xbd67ae02bcb7cbfaU, 0x3d32b5fe3d4925d5U,
  0xbb623db33cb94d53U, 0xbc4d57dabc7c2c5eU, 0xbd2e7be73c7ee527U, 0xbd3db492bd19565eU,
  0x3cd169ff3c87bb86U, 0x3cf1edebbd09b1f5U, 0xbb4a2f1b3cc4e28aU, 0x3a97ee83bb99a9d0U,
  0xbb54b632bca037a8U, 0x3cf2647cbd0b575aU, 0xbd3ec732bd806170U, 0xbca5e8b7bbd310e3U,
  0x3dadb4433cfa1f55U, 0xbc04ca2cbb3b433eU, 0xbbd618c0bc02a0d3U, 0xbd93a7ddbd838896U,
  0x3c163ae9bbd684b3U, 0x3a384a74bbae685aU, 0x3cb863c5bccd5880U, 0xbcd7464e3d585e3dU,
  0x3d2320e53ccdfe66U, 0x3b9c86a1bcfa9c16U, 0x3c5e06233d5540c7U, 0xbd08dfe5bd2c79d9U,
  0x3c05e796bc091458U, 0x3cd487d23ce0a1adU, 0x3d44f53f3cd1b6f9U, 0xbab2645d3b457a86U,
  0x3d34615bbcf8e748U, 0x3cf4b1b9bc4f839dU, 0xbaa762d7bcfd66f5U, 0xbd4de2d23c924594U,
  0xbcf907dc3c6f98c3U, 0x3c499c423d901b8aU, 0x3ca343fd3c43afafU, 0x3d121acd3b9b7575U,
  0x3d0f9af2bd73153cU, 0xbd22f5663d4f1371U, 0xbda2b7b63b32f2d7U, 0xbb63f79cbd61ed96U,
  0xbc938e983d62c2b3U, 0x3d115bd73cdd965bU, 0x3c93d087bd0b4745U, 0xbd12da58bc919185U,
  0xbc541add3dac0c27U, 0x3c84e0083c94246dU, 0x3ccc5c803d2cf833U, 0x3caa3324bd53c797U,
  0xbd244d423d2ce903U, 0xbd0d146d3cb295adU, 0x3d595723bd880759U, 0x3cdc6bd6bc8fcfcbU,
  0x3ca002023d5cbbacU, 0xbca8b6cc3d15b8aeU, 0x3d3745d8bb9dd22bU, 0x3d30fce4bc045f17U,
  0xbd27eecf3ca1b938U, 0xbcc25655bd44a49cU, 0x3d37c4343d272a5aU, 0xbc3908e93cbc2ae2U,
  0x3d46c921bc843e5aU, 0xbd176c2d3cb9393cU, 0xbc08d9d6bc3cb79fU, 0xbbd92f653ce6e910U,
  0x3cd0805d3cc7035eU, 0x3d1fc861bc783486U, 0x3cc84d8c3d84b648U, 0x3cc8981cbd09ea40U,
  0xbd386860bd04ba6dU, 0xbc3b87fe3c109089U, 0x3da365a93d480ed7U, 0xbba88a68bb159b9aU,
  0xbc3119593910a038U, 0xbbba76b53b10526cU, 0xbcf646bebc49a81cU, 0xbb4337b23c9a611dU,
  0xbd0c8b23bc9a1da8U, 0x3cdb3bc8bc0f5485U, 0xbd4318563cbc4eb3U, 0xbccf0507bcb8b220U,
  0xbb4ba048bca3ee55U, 0x3c5f26c33b0128e4U, 0x3dbb2c153cfe6f06U, 0x3ce12726bb8fb70cU,
  0xbd3c35423d8b4e70U, 0xbd093b613cef83fcU, 0xbc9d8bfc3cbdc32aU, 0x3ce908d0bc07a487U,
  0x3c0066d23dc04105U, 0x3ca0d0333c5a1dc7U, 0x3d97340a3c98a536U, 0xbcde05453d04564cU,
  0x3d309f67bc83c6efU, 0x3c94e2853dc0e39cU, 0xba9c27babd860590U, 0x3ced5f6b3c8f3a61U,
  0xbb8d1abe3d063c15U, 0x3d2f0086bd4cd108U, 0x3b97fab13c4a83adU, 0x3bec20f93d1ab418U,
  0x3c9241e5bca3ff42U, 0xbc9e86e6bd5bd324U, 0xbd375b19bd64e071U, 0x3cfa318d3d95d984U,
  0x3d9f7f5bbcbc8df5U, 0x3cddf316bc98bf35U, 0xbc939c70bd798912U, 0x3d06867f3d8d1a6dU,
  0x3dab653e3d8ec49dU, 0x3c3a5575ba6853dcU, 0x3ba05ebe3da087a8U, 0x3cb2a0a2bc4602caU,
  0x3d669afdbd0c11c7U, 0xbd61140e3c9f1a6fU, 0xbc13549abc9d8735U, 0x3d743d903c508fdfU,
  0xbd151b69bd1886f6U, 0x3d00b545bd6e4945U, 0x3d4ab89c3d96531fU, 0x3d4aebbe3cbb426dU,
  0x3d266a6d3cdddedaU, 0x3cbda8213d87c706U, 0xbc406f5ebd8ac478U, 0xbcb5e7b63c42104dU,
  0xbd1ccaccbb35a132U, 0x3d1cdf7bbd111bfcU, 0xbb22fe9abb04c4e5U, 0x3cc9b2a13c8e4e72U,
  0xbb0f8e533bb2449bU, 0x3cea30cdbcf6b43fU, 0x3cb17c5b3d251b27U, 0xbcd0ec76bb81c3deU,
  0x3d407bf43cce5ab6U, 0x3dcaf278bc4c2309U, 0xbd98743e3c8b8646U, 0xbbf3c3ae3d9662f4U,
  0xbc5651543c8db5d1U, 0xbd050083bb1a5141U, 0xbc8d558e3d32ac7fU, 0xb903a8a7bcf5d546U,
  0x3c2fce433c94b8f9U, 0x3cad0503bc4d5d79U, 0xbcc53c863d25d0d4U, 0xbd8944403cb04883U,
  0xbbd8f762bce9110dU, 0x3cb455643deb7f89U, 0x3d0b16cd3dd20eeeU, 0x3dc3ae56bd664e01U,
  0xbd1c21fa3d0120feU, 0xbc33d13d3c05a5a3U, 0x3d7994df3ac343ecU, 0xbd033ce4bd23076bU,
  0xbd865ea73ca7271bU, 0xbcba8f4e3db0e2b5U, 0x3d218523bc235314U, 0x3d0da6a4bcd08292U,
  0xbdb8a7f6bc040f3cU, 0x3d3c2ff13d8e9584U, 0x3ca0f43a3cb97384U, 0xbc252b163bb0fbafU,
  0x3c20d9fe3d50e9abU, 0x3ca8480ebcabf62dU, 0x3b22f981bd60aa58U, 0xbd200e533d4f0ddfU,
  0x3ba47ca9bc9aafd6U, 0x3d2413d83c29018eU, 0x3d142df6bce5d78eU, 0x3b2527c2bccd1278U,
  0xbd250a9f3c9bf010U, 0xbd0fbf30bd061d22U, 0xbc88648d3c10b916U, 0x3cc139133cd6a949U,
  0x3d21afda3c76694fU, 0xbd36a03fbd369e70U, 0x3c358cebbd1a247aU, 0xbb4fd1bfbc2a3818U,
  0xba90920fbc08db0fU, 0xbbec6864bcce5910U, 0xbbf2ed653d3ad397U, 0xbcac135d3d0e9023U,
  0x3d20c8953d057c40U, 0x3d06dc8dbc1d2eeaU, 0xbd4b9a073b8e499dU, 0xbc817ace3ccb7a8fU,
  0xbc4115aebc528c4fU, 0x3b2756693c4455acU, 0x3cf95b5cbc395631U, 0xbcaa93073c6a5cacU,
  0xbc1bb640bc8284d3U, 0x3aa442ae3d76e1f0U, 0xbb6c469e3c670435U, 0xbd20e71ebd2c7deeU,
  0xbc679e0c3d0372d9U, 0xbc915d34b9e627deU, 0x3c07a6a0bc9a2605U, 0x3d62b685bcd3b61bU,
  0xbccb87903cd999ecU, 0xbc2212b33d519105U, 0xbcc2f2463c27b634U, 0xbbd9e6593d068d23U,
  0xbd2af598bc8ee9bdU, 0xbd19c0dabc5f4208U, 0xbd08112f3d580a43U, 0x3a254d6bba5da3e1U,
  0x3bf7a7ac3cc0d412U, 0xbd03b6c5bc164e19U, 0x3caefc3cbabfa0a8U, 0xbcff602e3ce19bddU,
  0x3be95be43cf57f22U, 0x3b70c3113daeedd1U, 0xbc8af36f3d260b68U, 0xb95f32ed3c48738dU,
  0x3b662c243c5aebb6U, 0x3cb835a23ce3b380U, 0xbc74aedb3d2bba41U, 0xbc887314bb9b4f66U,
  0x3cf8b35abd67bdd4U, 0xbe362e903e6c2b0cU, 0x3e2d947ebdb45d05U, 0xbde64b36bd14c634U,
  0xbe4b3af23e0be113U, 0x3d53b80cbd026e6bU, 0x3d195c9ebe5b1915U, 0x3dae7b38bcb4df10U,
  0x3dd8a75d3e766d98U, 0xbe7b71dfbe37eb43U, 0xbe103a12bde47e13U, 0xbc096575be00e6e2U,
  0xbc803bfd3deba945U, 0xbc7174713dccb2dfU, 0x3e6584ccbdbbaa8eU, 0xbe27e9ac3e18c94dU,
  0xbde43a86be2db1f1U, 0xbe41474fbe17d692U, 0x3d935507bdbbd5a1U, 0x3e30ed5ebe9be287U,
  0xbe3d6767bda233d8U, 0x3e879776bddaaf16U, 0xbde452d9bd53c0beU, 0x3dcb77343dd45498U,
  0x3e6500423e27816aU, 0x3cd9e51c3e1a3a58U, 0x3d73091b3e7146adU, 0x3e82c9cabe6f5d62U,
  0xbe42bb0abd231633U, 0x3e69df07be16ab44U, 0xbd7e58ccbd9f4792U, 0xbd34a2babdad88fdU,
  0x3e1bf3f3be4afc8cU, 0x3de2b845bdaff1ebU, 0xbdb304e9bd9f4883U, 0xbdf40185be33ad95U,
  0xbd03268b3d118fb3U, 0x3e59d97b3da2137aU, 0xbe5ac848bd610f34U, 0x3e3d2ff4be57d8deU,
  0xbcfaf5263dedee2fU, 0x3e660ac2bd77cde6U, 0xbe2b3c473e44e3d8U, 0xbdcc63963e3cc14aU,
  0x3df4fe443d916fdbU, 0x3dd112a5be025229U, 0x3d5ce5a03cd74790U, 0x3d85492f3d6e69a8U,
  0x3e2d9b31bd9b3339U, 0x3e60dd48bce73e18U, 0xbe448f933dffac98U, 0x3e61c3a7be4c4498U,
  0xbe22fd063e99e755U, 0xbe0949813e1f1565U, 0x3c7c427cbe110d1bU, 0xbb5e4cc1be0542c2U,
  0x3e4550bebe00c837U, 0xbe0cb6d93d572303U, 0xbe13e16d3e8929d9U, 0xbe7e3941be62be2bU,
  0xbe5d89ad3e1fdc74U, 0x3dc5ef14be173489U, 0xbe964dedbe28afa0U, 0x3de485e93dd47a6dU,
  0x3de49f01bdfa2ee4U, 0xbe8d3e16be8fd52bU, 0xbe62ad2e3e258413U, 0x3b4583843d86fe41U,
  0xbe18eb48be4902a1U, 0xbeb57bd53e0f9ac8U, 0xbdd2c2a2be1c948dU, 0x3e7bc503be37bf99U,
  0x3e0be4bfbe0a1ab7U, 0x3c99d8443cd2e485U, 0x3cfb04d9be04bb0cU, 0xbe5191b4bd3801b8U,
  0x3e5f99ea3e461dbeU, 0xbddaa1ff3d841b80U, 0x3e22bbbb3e04649bU, 0x3e2e1b3cbe839339U,
  0x3e305bf8be749561U, 0x3e1d2e423d9e2f4cU, 0x3df428f0be87571aU, 0x3e2af9dc3e046cccU,
  0xbe12a7483e3e0bf0U, 0x3de913583e0d5f5cU, 0xbbb5d7fe3cb712e0U, 0xbe0a98cfbbff221aU,
  0x3d9c3ab43c35e6a0U, 0xbdb662df3e27efa8U, 0x3e05e3fb3d453868U, 0xbc6ee57dbe253f94U,
  0xbe14c4f53e289911U, 0x3e01cc583e1fcef1U, 0x3de31360bd57f1acU, 0x3dc3e9023e60176eU,
  0x3d7c68afbe32f960U, 0xbddaa04fbcf3ef72U, 0xbd329ed5bdbddc75U, 0x3dfd894dbd8edc85U,
  0xbc8b5a7fbd850b14U, 0xbe5c1e5d3dda20bbU, 0xbe92d6d03e172b2bU, 0x3c8d689e3d55f344U,
  0xbd4593f83dc2958fU, 0xbec7b55e3de58cf7U, 0x3e0793d83e5d46ecU, 0x3e913c103e6cb9fcU,
  0xbe476431bd7aa28cU, 0x3e42b7ea3e69e5f2U, 0xbe620687bd728a5cU, 0xbd281f293df69316U,
  0xbe32ed64bd83fc47U, 0x3e134d72be0f0c2cU, 0x3bed05403d912220U, 0x3dbbd4f03dfd957cU,
  0x3e58ad593e6c4172U, 0xbe308823be0c7abcU, 0xbe75556abd08e52dU, 0x3e4ef9083deb7a1bU,
  0x3ba7ede4bdb3e3d5U, 0x3db7b7b5bd99c4a1U, 0xbd85913ebe84f833U, 0x3e751d95be4bc2b0U,
  0xbdfe4284be35fa75U, 0xbea91a813e6c87b0U, 0x3df5dab43dee3de4U, 0x3c4f00eebe8c6d81U,
  0x3cd95ad03e3a702cU, 0x3e6081b43db99a08U, 0x3d3586113d82f74cU, 0xbd993b93be8e405bU,
  0x3dbc132abd8b4439U, 0xbdde2d633e59b0f4U, 0xbe52ecda3e174375U, 0x3e72c02bbd98ff98U,
  0x3d3e57243c8203b9U, 0x3e0af03bbe5b56d9U, 0xbe11207ebdd1ec55U, 0x3e2487da3e5c2be8U,
  0xbe2490dcbcec21a0U, 0x3d282c95bd42a40aU, 0xbdb5bda23e0574ceU, 0xbe2f511c3e197908U,
  0x3e06c999bddd5bb3U, 0xbe0c59a8bd964e21U, 0xbe35925e3e3a7011U, 0x3e6319c3bd0640deU,
  0xbcda25413e20c67cU, 0x3e6c2269be61f493U, 0xbe47a40c3dd4a23cU, 0x3d07460a3d5d57b0U,
  0x3c66a341bcb49af3U, 0x3d32445800000000U, 0x399b2a063c821b22U, 0xb8a08bf23d33f2ebU,
  0xbd733987bd2b951aU, 0xbd16fb8639c9059fU, 0xbc221457U, 0xbd7d6823375dba2dU,
  0x3d9cb34abc17d55aU, 0xbb14774b3cf62faeU, 0xbc3750c6bb5f140dU, 0xbd807440b9c57ab6U,
  0x3d1ece19U, 0xbbb7f3a63cf34008U, 0xbbaf433200000000U, 0xbd3ebadf00000000U,
  0x3af5f71a3d607cebU, 0x385b9b95bc00ce4bU, 0x3c3a637a3d42cf06U, 0x3939add03b703a41U,
  0x3bfa0d3b3d3e356aU, 0x3d37d9d53d75c933U, 0x3d0c786f3d62be9cU, 0x3d8192333d4ce494U,
  0xb7f5540400000000U, 0x3c27127dU, 0x398648e3U, 0x3d24f26400000000U,
  0xb999719200000000U, 0xb79d3077bd484becU, 0xbd5b422f00000000U, 0xbd1976133c8156d1U,
  0x3caa58f9bd0cee90U, 0x3cba8cb2b8c3a064U, 0x3d99798f00000000U, 0x3b10fa8300000000U,
  0x3ba29799U, 0x3da2247200000000U, 0x3d6fbc83bd45bb64U, 0xbdb27af83d100292U,
  0x3a18d1b2bda330d1U, 0xbd64faefU, 0xbd497ba43d8dd314U, 0xbd9a57643cc257b6U,
  0x3cc841023d6ff4d4U, 0xbd096f0600000000U, 0xbd82fc993b80a9a1U, 0xbd83ab7cbd55581eU,
  0x38e800c03d8e13b7U, 0xbd1d9a3dbd21a088U, 0xbe030ccebdd777cfU, 0xbdb53096980a995bU,
  0xaffa4fb93b0af6cbU, 0xa80a479ebcda9981U, 0xbd166f7f3de0d2a0U, 0xbd47ecadbaec4bf6U,
  0x968e19733dec15f4U, 0xbdcea85338a6c619U, 0xbd7478ed3e26579bU, 0xb9b10c6bbde6b395U,
  0xbd377f0e3dc6cfdaU, 0x3dc7e5499be0d550U, 0x202894f3bcd919ecU, 0xbd8edcf6bd138726U,
  0x3c5ae55f9811c3f8U, 0x3dd3374a9779643dU, 0x3d8f4a1bbcf75794U, 0xa920274e3d32875dU,
  0xbc1df8d3bd99b613U, 0xbb386e40bb678a6fU, 0x39fd7574bd121857U, 0xbd037264bdd63a77U,
  0xbcde0c67bdcab62fU, 0xbdb1c4d2bc9b40b5U, 0x366949b1a1b59387U, 0x21ddde5839c261edU,
  0xa277e3523ae54b3cU, 0x3c5c7f7a99ff959fU, 0x37d12afd998bd6fbU, 0x33fb2bd53d0cc938U,
  0x3d9ed0e1a10db1a3U, 0xbc6730cc3d8bb147U, 0x3b9c26933cc7c981U, 0xbc7a5af132bb40e6U,
  0xbd7a5ac61b0fc557U, 0xbb0c19eea0298961U, 0x21cb5926bd1d6ed1U, 0xbdc9b30a97d62e01U,
  0xbd3d73933dd565ecU, 0x3e0daf57bca2534bU, 0xbc141dd8bdaca1ccU, 0x1b8fb3fa3c7a4879U,
  0xbdd328ecbd58568dU, 0xbde08e8cbc09f8feU, 0xbe07025abcc32969U, 0xbddffc0c9f916225U,
  0xbcff1e79ba83157fU, 0x3d1ed3a83df15547U, 0xa91074e0bd71e17dU, 0xbd4e4dc5bd4f23bfU,
  0xbd54c631be03969cU, 0xbe0b53539e3a5850U, 0xb624a5813e184d57U, 0xa737275ebd44de6bU,
  0xbbc2d36b3d2745daU, 0xbd1005bebc58a9aaU, 0x1bb264933dbf9bd3U, 0x3d7828183872913aU,
  0xbd8ce8e33cbc33a8U, 0xbc22da8a3dff244eU, 0xbb7f0e77bbd00b78U, 0xbc2f7a2d2956e97cU,
  0x19d85bf1bd08d3a1U, 0xbd5ac4493b22c174U, 0x3c117ca31b6a5a3cU, 0xbe0cad339d0b4122U,
  0x3da4cfaabd1ad836U, 0xa852edc3bd862fbeU, 0xbd1a6d57be0f6cd8U, 0xbc0098ecbc8765a6U,
  0xbcdc4ac4bd944f5eU, 0xbd8d99a1bda4a045U, 0xbc9deb0e3e068538U, 0x3d3537f9bd10818bU,
  0x34051098a2ad476cU, 0x20643bfabceab238U, 0x1d7483d0386d2715U, 0xbd9d7f9ba20c0ba1U,
  0xb68126e1a160fab9U, 0xb50877903d57f4a1U, 0x3e0492949e0db6d6U, 0xbcb177f6be20cae7U,
  0xbd12069d3cdd8c26U, 0xbd4b4da2373f9716U, 0xbdc371849baf26b7U, 0xbbecc3cea2ba2830U,
  0x1b83057ebdedc720U, 0xbcda6bcb9d95b6abU, 0xbd32f26f3d465eb8U, 0x3dd13690bd3bcffbU,
  0xbc2e93793de51cc6U, 0x1b79131e3dae0a41U, 0x3da9ecf9bd475407U, 0x3d1e482fbc036b75U,
  0xbd4b3fd8bd836c30U, 0x3de38fa39b753878U, 0x3c0df488bb629f7eU, 0x3d826130bd8cfe13U,
  0xa83da2ccbd2149b2U, 0x3d8f172bbc4d29efU, 0xbccbd3723cf3575bU, 0xbca255e71ce032aaU,
  0x370078ccbd4b8323U, 0x2a980f4d3d47ab8dU, 0xbd072c09baf052ffU, 0xbca7b33a3bf35ab0U,
  0x1b84939c3b30f1b0U, 0xbc8e6ee0b709a152U, 0x3d8a6f363d458c65U, 0x3ab15d563c9b5471U,
  0xbc0a404d3d25ef10U, 0xbb806c781fc8278eU, 0x1dfea8963d27ab74U, 0x3b34bc293ca5744dU,
  0xbccb1e3a1b9e5f1cU, 0xbc8f1fd1990f7e9aU, 0x3d4d28543cc728e0U, 0x2d252953bcb60cb9U,
  0xbb6684e43cca081dU, 0x3bb80b89bab88384U, 0xbae57bec3d1e4c7eU, 0x3d1fc45b3ce8eb24U,
  0x3ca3cd63bcc10e55U, 0xbc55aa4b3d0569dfU, 0xb2d836f29a2d10aaU, 0x9c880a823b70adb6U,
  0x20874b183b51b4ffU, 0x3c4151c6210c4879U, 0xb3d7d2c2a09f8153U, 0x39653e02bd77189aU,
  0xbacef7ce1f3f14ceU, 0xbd047a8bbd5fb037U, 0x3b52133cbd21809bU, 0x3d45f499362d1500U,
  0x3dcebea81c0481c3U, 0x3ba932149bb313a9U, 0x18d8c1193b0df224U, 0x3c4f4d1c2192c39cU,
  0x3d447cf03c66ed8aU, 0xbc99f5113d1eb8adU, 0x3bd5f2473c94c990U, 0xa0ff32c6bd870c5eU,
  0xbc9e9d203d9f12c3U, 0xbc3bbc3a3bbe6533U, 0xbbb95e443d5ede33U, 0x3c23fbe79d83afddU,
  0xbd09845cbba47745U, 0xbd69c1d6bbb36a69U, 0x2ba6f8e93d549bbeU, 0x3a58d38dbccc4634U,
  0x3db3e668bb8db400U, 0x3dd17a73a2720157U, 0xba5015e93dabb7b7U, 0x2b4be3b63b948884U,
  0xbd973657bdc8c538U, 0x3cb71d473bca1bc2U, 0x212230753c8a337cU, 0xbd5945c0370b65f4U,
  0x3b72df74bc4e08ffU, 0x3bad400aba3aacd2U, 0x3c06d0b6bcb7abb3U, 0x3d2b8c61b864cd27U,
  0x21031e803a11ed06U, 0x3c0816193b895b9cU, 0x3b920a8b9f50d65cU, 0xbcf303061faa024fU,
  0x3dbb7acf3be1b9b1U, 0x3204d4c63cace729U, 0x3b8309aa3d0aa30eU, 0xb9f1dda53a5e19a5U,
  0x3aefe22f3ba56f12U, 0x3a1719d23bd6d750U, 0x3bd0c36f3d5651b9U, 0x3c8f4a583b6489b3U,
  0x32180a7aa11db17eU, 0x9e8476e9bb2b14fdU, 0x181c483a3b54a99bU, 0xbbe147cc1c9f5f26U,
  0x35096b8222cadff7U, 0x3a02f15c3a598a74U, 0xbd32dfd79e5dfdecU, 0x3cc9c1083d040b2fU,
  0xb9e3e0cf3b1252f4U, 0x39bf415b34027225U, 0x3bc5d03d1db78a25U, 0x3b91cf122091f2eaU,
  0x1d4bcea4bb7ae19fU, 0xbd0a8a191ad2b6b2U, 0x3b95b1b23da7c6d9U, 0x3d8b5fcf3b629bebU,
  0x3b50c627bd98f6bcU, 0x199387513ba512cbU, 0xbc8ed86f3ba17533U, 0x397050f83a671e48U,
  0x3c9382f43b762f2bU, 0x3d48ad0d2231efcfU, 0x3d7e4ba43b733dc8U, 0xba80f359bd2879ddU,
  0x3085da773c5e0b69U, 0x3971ddaabd35294eU, 0x3da766e5bc35b494U, 0x3db12ee0a0c0c129U,
  0xb6cd1e573cc152f1U, 0x36266cb1b7a0963cU, 0x3d247b9f3cec10bfU, 0xbd445346b77e5890U,
  0x9b223014bd9205e6U, 0xbbcd8ede364acea0U, 0x3ac1ece1bcbd881dU, 0xba3630e9bd3103aeU,
  0x3a525657bbad5407U, 0xbc71dfb6b5355ddeU, 0x99085060b8e63cdbU, 0x3c734561ba90ad8bU,
  0xbab4c0831a307596U, 0xbca4c2c599e8a6c2U, 0xbc8dbcf13ac2aa05U, 0x379e74ad3c2e2bbbU,
  0xbba1d6a2bd2f094cU, 0xba608b68bb06018aU, 0x3980bad9bb4c468cU, 0xbbaf7c01ba3c2011U,
  0x3a4bc381bce800d1U, 0xbaa993fabb30bd1cU, 0xb1b8f9301a1fbb24U, 0x1a0acfb8bb8d04e1U,
  0x2041d44c398c9acaU, 0xbca6cd8d98854aa5U, 0x340106239edac0faU, 0x367d626abb935f57U,
  0xbd89e849a238e266U, 0x3b43921fbbb45c3fU, 0xbb9b70dcbb380a78U, 0xbbc50c7c2ea2c274U,
  0x3abac8f9220a0bd3U, 0xbaad57ca1af67c65U, 0xa001f069bdb4d2c9U, 0x3d266c521fbe5b50U,
  0x3ac5e7e0bd8ffe05U, 0xbd0ee7f5bb8b10dbU, 0xba4ee948bd5c2fd6U, 0xa012ff58bc4a2359U,
  0xbc0b9f1ebac68290U, 0x3920452e3970d1ffU, 0xbcc92b9fbb1e52e2U, 0x3d09c2749ba133adU,
  0x3d3b9f0db86f048eU, 0xbc393fabbd039521U, 0x36b5315a3b448920U, 0xbad7240b3cbf8d1eU,
  0x3d09be7c3d0d1804U, 0x3c8e6e6c9b14d7b4U, 0xb51325dc3d6da8b6U, 0xb0c589e2babe1a48U,
  0x3c278898bd9070eaU, 0x3c817071bb1b0b4fU, 0x9eedf4e13ceab1dcU, 0x3d358729b6294463U,
  0xbbc63d45bdd4b824U, 0xbbcb2197bd4fb5e7U, 0xbcafb2f3bca7afa0U, 0xbd3dd439b0c1cbfeU,
  0x1799e113bb331cddU, 0xbcb0a8b4bbe202edU, 0xbc015b1021f39844U, 0x3cd2c1f79a9472b0U,
  0x3b6532aebbabcfd2U, 0x35290192bc97da6fU, 0xbc18c66ebbe7c0a8U, 0x39a670dabb857d84U,
  0xbc90f37dbc8fe0d2U, 0xbc490ff5bbfc95afU, 0xbc5294e13d1ae6b9U, 0x3d155d84bbcc1ca3U,
  0xb2e5b4351f14064bU, 0x1ba79a9bbbfb8f29U, 0x1a16b4a539758ba2U, 0xbb8ba87a1cb50054U,
  0x38b2670ca1c8589aU, 0xb54a6759bc8eff9fU, 0x3cf34ee11e743feaU, 0xbb2c69b1bbcceac0U,
  0xbc8bc95bbc61ea42U, 0xbc617f58b33caf4eU, 0xbba42890213508c9U, 0xbad37cea187691fdU,
  0x9d92e30dbc1a2373U, 0x3c0c1fce9b43284fU, 0xbc2c9c57bd4e3a71U, 0xbd9d4d4dbc8ce339U,
  0xba5c1e25bd63401cU, 0x993339cabc896ad3U, 0xbc8ae2b9bb791e5fU, 0x3c09c3febbbb1f3fU,
  0x3c477b7dbc4b3cc1U, 0xbcd4165c1b45ba64U, 0xbc809756bbd532cdU, 0xbc924d833c099ce7U,
  0x340652abbc3b1e67U, 0x3d27fe673dbd340dU, 0xbde915e7bd981888U, 0x3caa20569bc8ac13U,
  0x39b123503de8b24eU, 0x360b28303ccf67f3U, 0x3dba5208bd7600f4U, 0xbdc8ebe53bad6eefU,
  0x9d99db1e3d812c04U, 0xbe0cfd3337a79d3fU, 0x3d4c80bfbd77a27fU, 0x3be0ac8cbd0ffcfeU,
  0xbd6a7fd33ddc7b1bU, 0xbdba2d70b2a8cf9fU, 0x9c6acaf83c94dbcfU, 0xbd662a8f3caf4587U,
  0xbbe18945a121791aU, 0xbda582821dde1e1aU, 0x3cbd5e753d047080U, 0x3720a130bdbf3d0eU,
  0xbab508c3be0163cbU, 0x3b95259f3b315739U, 0xbbea06ba3c57b720U, 0x3c264aa23d69725bU,
  0x3cc8f5933d7ceee6U, 0x3d42f3c73c7c2b57U, 0xad50605618c1ed93U, 0xa1d56a1abb12f3c9U,
  0x1c921be73b49a371U, 0x3d94a90b22e82cc5U, 0x36ebfaf61e611e94U, 0x3a438c48bd661359U,
  0x3d959be8994c770eU, 0xbdcd6ecc3c877fddU, 0xbbf8538bbcf570ffU, 0x3ca6047b34c9bad0U,
  0x3dad469f198e21a7U, 0xb85ae781a1cbc161U, 0x986d13ce3d6e7818U, 0x3d99c5e51b1a8915U,
  0x3d2e7866bdae26e8U, 0x3dbf078b3c2bdec4U, 0x3bb0c3cc3d820705U, 0x9b24e8bcbd710210U,
  0xbcc211e33d084f17U, 0xbe1d8a783bb518d9U, 0xbca16bc13cd36c08U, 0xbe1126b219398c12U,
  0x3cdf02773bb95398U, 0xbd6d392bbc4158a7U, 0x3710ac643d78e9c2U, 0xbcc127b53d743e87U,
  0x3d200931bdaf577cU, 0xbc09066ea22c8da2U, 0xba124691bdab4a7dU, 0xaff72875bc8c0abaU,
  0x3d5ad7593dce8b81U, 0x3da5ba34bc18a965U, 0x19c018073d372880U, 0x3dd69654b78f0686U,
  0xbcc5968abdefc472U, 0xbaef4f8cbc86ddf7U, 0xbc63e44dbceaafb4U, 0xbd093407b00a369fU,
  0x22027947bc248a29U, 0x3ceda7d9bc329209U, 0x3bd9f00c1c1e5453U, 0x3d2937701acc9d23U,
  0x3dc6495ebbf40211U, 0xb348363d3ccf5647U, 0xbc34b20bbcba84feU, 0xbbe1c669bb3eb428U,
  0xbc1dbab2bcca172eU, 0xbcc7747ebd1b4bb2U, 0xbbcb5ea23e0eca4fU, 0x3cb9d0d0bc63ae4cU,
  0xb5bb74019f53be0eU, 0x9bab8490bbe3494aU, 0x18e4a5ebbb7d7995U, 0xbbda2dcf1e2bb89dU,
  0x36f9bb6b9c363ea3U, 0xba1093403b3aca2dU, 0x3d5cba78a183734fU, 0xbaae2da1bd36de43U,
  0xbc1fc5b83c3742e3U, 0xbcf3b37b353c9206U, 0xbce851499be4c4c2U, 0xbc0d37c498d86847U,
  0x1bd1aa9ebe177b0eU, 0xbd8e1ac31da2fbf4U, 0xbc7703d03dc3fcd8U, 0xbcf369dfbc82771aU,
  0xbbc9733fbd597dcfU, 0x184a36c83c92af75U, 0xbc7d11b1bccf20b8U, 0xbcbf6b42baa4d620U,
  0xbdacb1d3bcb311e3U, 0x3d9517991abe39eeU, 0xbd2ba18f37d96fa8U, 0x3c4d222bbd2bbd60U,
  0xb2365f86bc6f35fcU, 0x3d8a20173cc55e6cU, 0xbd8af73bbdfc721dU, 0x3db6ad6d20cf73a9U,
  0x9e267dcb3d885299U, 0x278500e13d748640U, 0xbd8ce8513d9735dfU, 0xbd8e89c73c605a51U,
  0x9aad3a703df6fcd9U, 0x3d3217c837b99ec2U, 0x3dbe2b353d4a3d35U, 0x3c6ae6ae3d7f957fU,
  0x3c9030c2bda2f41eU, 0xbd8ec0e71e13ca9cU, 0x1f6f60b23d556402U, 0xbdb4585e3c837e51U,
  0x3b9444a3a2b1fcc8U, 0xbd178d06a137bf40U, 0x3e0442d53da0adc1U, 0x28933b253d3bd10dU,
  0x3cb025ba3de19c0dU, 0x3c11e4ab3c9523c5U, 0x3cc270a83cfa74caU, 0x3d1fa5533ddf7c34U,
  0x3d7dd0d23e05efbbU, 0x3dc896e03d224d15U, 0xaaf535989be8e301U, 0x989ff1c93c8b325fU,
  0xa1b206ff39e4d78aU, 0x3d1bbb371a445064U, 0xb608bc359805416eU, 0xb5e89f6abd5c72dfU,
  0xbd273dbf9a16acbdU, 0xbdafd962bda30b52U, 0x3d11fd94bcf981efU, 0x3d33364931069194U,
  0x3e157acb1fb4e1adU, 0x3c044baa20e69a81U, 0x9a22ddce3d4eea72U, 0x3e0f6f0f20ea60d4U,
  0x3d17fd52bdc95d03U, 0xbe0a66503d248f37U, 0x3c2e901cbd92d8b6U, 0x98dfedd2bdb54d19U,
  0xbd5224b63dd4883eU, 0xbe070f633cdbf689U, 0xbd574f683d81a658U, 0xbce9861d2034eaf8U,
  0xbd4f41403c369c54U, 0xbd94a35cbe0e2f5eU, 0x28856b173d2d95dfU, 0xbbb8bb773d0ae686U,
  0xbd409bafbc37ec84U, 0x3d609ef21a75d070U, 0x33a604a1bd67a288U, 0xb51af1e1bb892037U,
  0xbc606227bcbe6349U, 0x3caee5c0bc6442b9U, 0xa2da4d983bf852adU, 0x3d02f3a9b680e8b4U,
  0xbbcffe97bda652a1U, 0xbb9e68493cf9d2f0U, 0xbc60b6463d30d199U, 0xbd456a763183c23dU,
  0x20f7ab93bba1caf2U, 0x3bf8c505bb8199a5U, 0xba950651a1f69e31U, 0x3cddd1f81cecba76U,
  0x3d2110d4bb9c4692U, 0xb613f1babd21d5dbU, 0xbc7686c93cd0ec66U, 0xbc2e3d4fbc0eb4f6U,
  0xbc851152bc5cdc7bU, 0xbc6bd518bc23a604U, 0xbafb86a9bc5c8336U, 0xbaefa17cbb74f423U,
  0x361bbc7b995932e5U, 0x1afa123cbc473f29U, 0x220f0972bb815728U, 0x3b38d80719bd4c12U,
  0xb8b9185099b44211U, 0x36d99d363bf62a0fU, 0x3c98f13e9e8a902cU, 0x3c3545ec3d41dc06U,
  0xbc67d7753b7afd46U, 0xbc2011a0990d45d1U, 0xbc4914b1a1e7ea92U, 0xbc2214d0224bf8a0U,
  0xa2882f203d67363cU, 0x3c28e8f219457884U, 0xbb9f01b63d642964U, 0x3d34eaffbc16304aU,
  0xbc64495f3bdc7952U, 0x2212d6eebb1ba4c3U, 0x3c65e432bc15a0baU, 0x3cabb074ba62d7d2U,
  0xbbebc6bbbc14d424U, 0xbc7831f1199ec546U, 0x3d2e4f46bb4b48d7U, 0x3b9717103d05aef5U,
  0xb62130ecbbea48a0U, 0xbd4206a9bd7e6553U, 0xbccbb35d3dd50e9fU, 0xbd8cf545209bc85bU,
  0xb65df380bc42a746U, 0x9ec3cae8bcf7be15U, 0x3de4f1943daea917U, 0xbd8c23e3bb92bed9U,
  0x989807b03c5ba278U, 0xbae7255c370e9f56U, 0xbd673f9dbd396510U, 0xbc3dc74b3d56fdd7U,
  0x3c571bc6bd4119e5U, 0x3dde01af1dfc5be4U, 0x1b688952bcdd7476U, 0x3d276311bcdc8da6U,
  0x3b2215491d8e4b14U, 0x3e1b49881ab0cc81U, 0xbd9693b7bd13efa7U, 0xa07d2a593d589289U,
  0xbc337049bda5e5bbU, 0xbbb1a575bc206837U, 0xbc72efa8bd20ae4dU, 0xbd37e127bc2ee78dU,
  0xbcefced4bd8fa6a6U, 0xbd511cdabcd4ba92U, 0x2a4f41c39db72e1cU, 0xa12008cbbc982585U,
  0x9d9601d2ba5e50ffU, 0xbd1010c699a8e2f7U, 0x343a8f7c18816d14U, 0xb7832daf3d3ceeebU,
  0x3cf7861ca124fc93U, 0xbcb57778bdd6ecc4U, 0xbcd12e5f3cc443b6U, 0xbd09a68f3578b35cU,
  0xbdbed11b9839e635U, 0xbbde05ec1d2784fcU, 0x214d909ebd839d4aU, 0xbd8c96c41b517c04U,
  0xbd26c8cebd6bf78bU, 0xbd6c108abce679b4U, 0xbbe0b0523def99a6U, 0x9a1af49c3d6ad3c2U,
  0x3c014269bd549f57U, 0x3dc9feccbc475948U, 0xbd9b6165bd1b9446U, 0xbd013b8f9839c3deU,
  0x3de675f9bc5dcbfeU, 0x3d5711293db5fe3bU, 0x1b50cf0cbccbcc41U, 0x3a8fe0ecbaeec15aU,
  0x3c017440bbdf7f15U, 0xbc547e959e6e7f76U, 0x35ec80babb87bfc8U, 0x349f117e38455962U,
  0xbc5c6cf1bc552206U, 0xbb1d70d53b3d7543U, 0x1b992a8cbb6daf4eU, 0x3b5ac5c236864b56U,
  0x3a45192ebbbe0032U, 0xb9e17e913babd707U, 0xbb0150bbbbd0cba8U, 0xbc3023edb5f3fdcaU,
  0x208156c538304ddcU, 0xba0d4262baadc403U, 0xba7711b29c92cb5dU, 0x390aa5319ceb3f9eU,
  0xbbdcf241bab1fac6U, 0x37a2383ebb184959U, 0x3b91ebd03b904679U, 0x3b5240bd3b8a741fU,
  0x3b908c083bb350f3U, 0x3ba6f5dc3ad6111eU, 0xbad194e4bc08fe99U, 0x3b1cdb9c3ac6e379U,
  0x35c900e217403144U, 0xa2a25a8a3b9a4344U, 0xa1896f333b0428c9U, 0xba560067a0093017U,
  0x37e053541960c5bcU, 0x352f18e8bb66cf60U, 0x3b8f6e3b9aee6b32U, 0xbbc022ee3ae715a6U,
  0x3b571786bb34391eU, 0x3bab472234101c72U, 0x3b174c3d1a02e5c4U, 0x3b448e5ea2d44856U,
  0x18a1cd003cb3187bU, 0xbb720f9f1860f019U, 0xba7c2aaebcb0a8c9U, 0xbbd9d5223b87c49cU,
  0x3b8e5994bb3e93b9U, 0x18d90218bb171986U, 0xbbaa23e73ba85b27U, 0xbb00341d3919cdceU,
  0xb929079a3b19b4e0U, 0xbb8582d2224a149bU, 0xbbd75c38b9391a0cU, 0xbbbfdc3dbb522c83U,
  0x374800243b0e613dU, 0x3ad3962cbcaffa51U, 0x3d3218493d606f31U, 0xbc8b2a271854f9e0U,
  0x36586a4e3df4f92eU, 0x2d94d82d3b1bc8f3U, 0xbd84f7b8bd20c06cU, 0x3d81593f39a21776U,
  0x22e8eabe3ccedb89U, 0xbd7d657b332d1e66U, 0x3ba6945a3d68fff3U, 0x3a0af0e43cb35a47U,
  0x3b9a44273cf40b63U, 0x3ddcf8d32e12ef37U, 0x22660f133ab5577aU, 0xbc588f283ae85f0dU,
  0x3abb6ff09eff7c54U, 0x3dbcd02c1ef086c7U, 0x3dda85213af7235bU, 0x301eb5343d20f1ccU,
  0x3adc16ca3d9183d8U, 0x39bee17c3a794a3aU, 0x3ae912ce3ba6db63U, 0x3bf3bf583c48c91dU,
  0x3b313c30bd0ecd69U, 0xbbac35333b553f54U, 0x36a51127a24047f7U, 0xa013c5a03af06b56U,
  0xa1d7014c3929d90dU, 0xb9e7897e9a618531U, 0x373dd4321f9dfc27U, 0x37510c023b5ff130U,
  0xbd0c6f971fc5e988U, 0xbc3161243dcd2506U, 0x399d72dd3ac76f7cU, 0x3bd1ebbbb512b7dcU,
  0x3c20b9699b2acf75U, 0x398c736b20c991d1U, 0x9f4f8e1bbcd6aee0U, 0x3da00b0a9ad5403bU,
  0x3bb88159bdb4e2d4U, 0xbc95c9763ba282e5U, 0x39d80257bd8e2351U, 0xa08679a4b9dc3badU,
  0x3c8675f73b9f7fe6U, 0xbce99fbf3844da78U, 0xbcf873bc3ba33540U, 0x3d1855aaa23b57fbU,
  0xbc8a98f53a89e528U, 0xbaf838973be3c87eU, 0x2fd1d6803c8c6dc3U, 0x3d23446abd160b71U,
  0x3d10745ebd4b67dfU, 0xbcde9f3ba00b43c1U, 0x2f200fa43daff678U, 0x3015683a3d18b3a9U,
  0xbcf94986bce04587U, 0x3cefe1bb3b25b880U, 0x9ab1489a3cbfdae6U, 0xbc32184f382cdf11U,
  0x3d3e0bc3bd1d3cd3U, 0x3c4f12963c0b7f9aU, 0xbb651be6bcd4cdcdU, 0x3cbbda10a2e68b32U,
  0x19a7e78b3ce0d8e7U, 0xbc9286463c83dd0fU, 0x3ae367e0999393b8U, 0x3bbd125e1ffe4a81U,
  0x3d00cf2f3cb45bc1U, 0x3343f5bcbcdf0e7bU, 0x3b1d99ae3d074b4fU, 0x3a8a1ad53bb8e928U,
  0x3c3ad2543d2d8a15U, 0x3d32b7d73cceb21fU, 0x3c980ea83da280cbU, 0x3d20a7b43d0c6bfdU,
  0xb67883041c28f3d4U, 0xa0ab1ed43c24a728U, 0x9c4bf93d38fb6792U, 0x3ccd8ff8991c0c04U,
  0xb7b78733218303c8U, 0xb6fd5c66bcffd062U, 0xbd2280179926f694U, 0x3c7605333c810f00U,
  0x3cf7ac9dbc89b53aU, 0x3d52094e342ed653U, 0x3d891dfea22c5645U, 0x3a8c48621f49ffc3U,
  0x1e613ac23bdc5cf8U, 0x3c123a7fa041d240U, 0x3cfcdc0fbd0d8b53U, 0xbd04f18a3d0d8a24U,
  0x3a96fa32bd3ab650U, 0x9afcc08ebd0198eaU, 0xbbc96c693d7b39b1U, 0xbcccbd0f3c38ae07U,
  0x3ca4fa853d2a4b53U, 0x3cff56c31d1039a7U, 0xbc7ba4943bc0a457U, 0xbd2566a6bc14de26U,
  0x32cf793b3d2f1da3U, 0x3c2c2a203d609f00U, 0xbdee40833c725639U, 0xbd3b014a1fd2a480U,
  0x374fb668bdcbfe62U, 0x35b77d0c3b98a640U, 0x3d73c4a6bccc579eU, 0x3d1abcc03c251dd5U,
  0x1cc30704bdba3edfU, 0xbdecce5d33bda964U, 0x3c94d17d3d955f7cU, 0xba3c59583d5f49f9U,
  0x3c6c66163c0e3324U, 0xbd6e50d01e8b1132U, 0x9c8e4fcb3b1e7337U, 0xbd3095a13ac4659aU,
  0xbb2ffc389b176f9eU, 0xbdf9676f976ba0f4U, 0x3dfb58e73c35423fU, 0x371fa7813d35d5bbU,
  0x3c10233d3be86278U, 0x3ba4c4ef3b8a5ddcU, 0x3c17b8603c534dfeU, 0x3be5498c3bfefc25U,
  0x3c0988443d5999c5U, 0x3d7ca25c3b902144U, 0xb41f113b19852f42U, 0x9dc571803c54529dU,
  0x9a8045f23b2273ddU, 0x3cece0489e7ffa75U, 0xb3aacbbd1db307d6U, 0x394bfcd8bcc57c11U,
  0xbdc953d6a0c81e90U, 0x3c195bc33ce9b6e7U, 0x3bfff0e1bc4dfa23U, 0x3c86d288b2a32938U,
  0x3d07ec7a98111f4dU, 0x3bce260a1f722a6cU, 0x2202e22bbe032370U, 0xbcbce8531bf28e1cU,
  0x3c5efbdebc6a10a3U, 0xbc4825ed3c33bd4fU, 0x3bbb204f3dc54581U, 0x9a73961cbcf3ab78U,
  0x3d2ee5333c982758U, 0xbd816fc2bab0728fU, 0xbd8c55923c5d5a0fU, 0xbd95b9909cf35848U,
  0x3d89ca42b9d76fb1U, 0xbcf5daf83c8abc1bU, 0x3686976b3ace2d56U, 0xbd30862cbdb4c592U,
  0xbdba993d3d017f83U, 0xbdd6d78e1945278fU, 0x38927cacbd4ab55cU, 0xab9f7d57bcf051d0U,
  0x3dd92b3c3dcff663U, 0x3df4ee3ebb1465fcU, 0x1f243a0fbda2a619U, 0xbe0882f6b512e4b3U,
  0xbd502663bdd8c255U, 0xbbf301edbce72645U, 0xbcec4c683e01d7ebU, 0x3bcf42bc3735e97fU,
  0x9ba5d5bdbcff36ffU, 0xbd9e82a5bcc206bfU, 0xbad129a2a2de5812U, 0x3ddf48ef9fff3073U,
  0x3da12ccabd1bd039U, 0xacba09e1bd88344bU, 0xbb74d5af3daa94b2U, 0xb9a9c7fabb85a6f3U,
  0x3b9ec3c1bc7c2591U, 0xbc61c044bd7e3ce9U, 0xbd05d0553d9a69a4U, 0xbdcd99c5bc851a8cU,
  0x2b9e9429981952bcU, 0x1d372fe1bb022437U, 0x9c6719483ac2267aU, 0x3c3ee8fc1b07de27U,
  0xb6386c0222d97a7aU, 0x390addaf3cf8b38bU, 0x3db6acf097b54af3U, 0xbd8d3d8c3c4b55caU,
  0x3a1f05a23c8904cfU, 0xbccbe935b49439a2U, 0xbd9830181f03440fU, 0xba6779001f137001U,
  0x9e5c0d43bbce7855U, 0x3dcc0edba0eb6b98U, 0xbd37625dbc8cf8c7U, 0xbdbc551ebc8b96a7U,
  0xba6e26abbd81376bU, 0x99afbf3f3d025820U, 0x3d1907d1bd18e792U, 0x3d2ce89abc289a1aU,
  0xbc27e5febcee879bU, 0x3bc4d3cf1e52c6d8U, 0x3d7ae80fbbeb8455U, 0x3d0e7bb33d329cadU,
  0xaca77f55bd88941bU, 0x3d12f9e53d28dc9bU, 0x3bd0c672bb0d1b24U, 0xbd0f44d31c285426U,
  0x318ff5ce3dca8976U, 0x2c4ee0943cd07e6cU, 0xbdf92a3f3dfd3e65U, 0xbcf6175e3be72503U,
  0x1996316a3a8b29a2U, 0xbbfe893d36b33dc4U, 0x3d1960c6bcedd95fU, 0x3b6e57493d0d89b9U,
  0xbc957fa93c88993fU, 0xbdeb09b4254d22e3U, 0x1c1aa9723cbb1713U, 0x3d352d003c9454ceU,
  0x38541f282143c2d1U, 0x3dbec7ff224b636eU, 0x3d81554d3cba8676U, 0x3142af00bd9b8c39U,
  0x3c8815603dced441U, 0x3ba799a73bcbadc8U, 0x3c432a1e3d354d55U, 0x3d0eb16b3d228ec6U,
  0x3c8855813d0daf1dU, 0xbcbd67f43cb4a560U, 0xb1544dfca09ee6ccU, 0x1b9238353c08c80eU,
  0xa120355238f40146U, 0x3d280c631e53e86eU, 0x36179ae02126a473U, 0x34b5dd44bca8398cU,
  0xbdc8e428a0377b45U, 0xbd62cdebbdb38d36U, 0x3ccf3cb4bc3336e5U, 0x3d233d66331fd840U,
  0x3d68886d9b4180f3U, 0x3b8a991e20fb67d1U, 0xa12bd11c3e0a2828U, 0x3cae42651dcab4aeU,
  0x3cf02bcabd93ab38U, 0xbdaa4b1f3d075102U, 0x3bcdbcb5bd2bf123U, 0x9e0840cebcf7f117U,
  0xbc733c8d3d5bc31bU, 0xbd715d063c1176cfU, 0x3db702703d0bc97cU, 0xbd95fc161bfb2b92U,
  0xbd91d6c33bb2789dU, 0xbcfe9db73d806cedU, 0x30e7d80a3c904ccfU, 0xbb79112cbb752c14U,
  0x3bf23095bc96df69U, 0xbd1d13e11dc6bb47U, 0x3a8406f63ce75effU, 0x31cc1094bb71432fU,
  0xbcd6b3613d1bf8b4U, 0xbccef9b53c4cd1ceU, 0x1ff8d7fcbb80febeU, 0x3c1c628bb684fa44U,
  0xbc222bbe3d3d2290U, 0x3b6b8af03c7b4180U, 0x3c232bcbbc132f06U, 0xbc28db5738c1f11eU,
  0x9cbdad26b95cd800U, 0xbb67f2b1bb931036U, 0x3bb93c401c2122bcU, 0x3bcaf83c203a177eU,
  0x3b0885bab8d85d70U, 0x32e55edf3cf0c782U, 0x3c12e9aebcf41578U, 0x3c17f5543c304d8aU,
  0x3c6256023b17ba14U, 0x3b9ff61a3b1f5b34U, 0xbba183603b6292ffU, 0xbae32626b9b5ce94U,
  0x378102551e0f98d0U, 0x21a768113c07ae27U, 0x991e56763bc04a0eU, 0x3b09c0be1cd9f80cU,
  0x39ed9ecd9e23d0b2U, 0x3ac148113c4ac249U, 0xbc3f86cb9ecbf5f8U, 0xbbc0d8643c515889U,
  0x3be82aec3bc481f4U, 0xbc02bfbbb510cbdfU, 0xbc84c8019b1d1d42U, 0x3c2ecff39804599cU,
  0x1e653b323c5ec726U, 0xbc5373ed9cbbe655U, 0xbb8915c63c8cfa4fU, 0x3bb938e53b1a8c30U,
  0x3c41c9753c47941cU, 0x213a4db03c815ae8U, 0xbbe3e238bbf8fceaU, 0x3b8f38163b09ffdaU,
  0xbc0bc5803aa41d72U, 0xbc770a1a9bf7dc26U, 0x3c6493a23b867da3U, 0x3c76fa6fbc5997dfU,
  0x32b48fe9ba64b8a8U, 0x38df2b8ebb8c5498U, 0x3bd92d69bbcf71f5U, 0x3b22bda09bfbbe64U,
  0xb418ab20bc356d25U, 0x32d39b8eb88be258U, 0x3b0f27cebc7b7288U, 0xbb5ff20ab800aef9U,
  0x97767974bb314192U, 0x3b033a063683a090U, 0xba0455713b82f00eU, 0x388e0d34bba33ffcU,
  0xbac487433b98adecU, 0xbc5ec01aafa8d886U, 0xa0d8eb20b902c361U, 0xbafaaf50b9940fabU,
  0x38583ebf224bd735U, 0x3a892de821b21e27U, 0x3b9dca10b890ade7U, 0x343433f8bb2a6e09U,
  0x3806a6e8bba33d36U, 0xb8712c7938ce1636U, 0x372a57edb9008236U, 0xb94e4bb0baa1b2acU,
  0xb8cc1d69bcc9ccd0U, 0xbb301d22b86715fcU, 0x3494facb9aea37aeU, 0x9ea2f33937d63d0aU,
  0x1ddf1420b71cf70cU, 0xbaa2bb0b1ccfa6caU, 0x353282bf229372e6U, 0x349ab1c8ba4c7e3eU,
  0x3604be50a13d30e3U, 0xbb0af624ba21dd89U, 0xb7853914b94e32a2U, 0x36cbd110b20d58c9U,
  0xba007a93185c43e3U, 0xb7ef42982136d05cU, 0x17e6cf79ba82eabeU, 0xbb92d06c1b094decU,
  0xb9329eecbb8c0474U, 0xbba9ec0fb9f26b02U, 0xb82f40babbd5dee6U, 0x1d96d190ba45ea92U,
  0xbb299c43b87092b2U, 0x3aa36ba4394300c5U, 0xbb2e0312b8ca4633U, 0xbae96de21f5de4c6U,
  0x39e13829379f00aeU, 0xba32fc68bb8ce186U, 0x33e14908ba620cc3U, 0xbc26e83a3b9abc5dU,
  0xbcf737e1bc5eb62dU, 0xbdaea5e216f74d2eU, 0xb962b6c2bd29eec7U, 0xb69e2d28bbb62536U,
  0x3d909f76bdcc94d6U, 0x3daab48bbc443648U, 0x1ec707de3d8a3952U, 0xbcb3dd39b7eb8ceaU,
  0xbba0e4343e00dbdbU, 0xbad93bfe3c1957b0U, 0x3c6424593dd91bbeU, 0xbce95dbeb5367310U,
  0x98152116bb1980d4U, 0x3a85d40c382cbc98U, 0x3bb94f8f9a72465eU, 0xbbf3cbc818ad6789U,
  0xbdaf0d37bb27ea02U, 0xb7ae97773d9c553eU, 0xbc15955bbd60fd63U, 0xbc2476acbc465b47U,
  0xbc807446bc65fdd6U, 0xbcbc5ee03ba0a255U, 0x3a316563bc1cc743U, 0xbc4cf2a3bbe629efU,
  0xb40486ed20305c6bU, 0xa20450e6bc1d0494U, 0x9ab9fee1bbe254c9U, 0x3d2af1b69b885ffaU,
  0x372c19e69a9a56dbU, 0xb9c2a06d3cd69fa8U, 0x3db1539a1a8243b9U, 0x3d0078d53dbce31eU,
  0xbc887acd3c596294U, 0xbcae3647b4394865U, 0xbc91ff641c2dc906U, 0xbc58e895180318adU,
  0x1dc8d86b3d589a51U, 0xbda235321f77c61eU, 0xbbb90e0e3e01458eU, 0xbd57cb5bbc668dccU,
  0xbc3f292c3cee8c45U, 0x1f1a80773d02d1f8U, 0x3d870792bc561463U, 0x3d1bbf21bb18f0c7U,
  0x3d1fb9e6bc4242d6U, 0xbd281d0f198f7ba3U, 0xbdae41eeb96bcf03U, 0x3cdb2a83bd83d8faU,
  0xb7a46eb2bc9e5263U, 0x3a961bb43b7709d7U, 0x3b7f260e3b9ea1d7U, 0x3b9034f420b3105aU,
  0x34398d833b9a6168U, 0x31a2b24c3a59e9e3U, 0x3b2c2d873b82daa2U, 0x3ab7461b382350fcU,
  0xa128a3e13af5f692U, 0x3b5e6492371f1604U, 0x3abdc9e13b7a61fbU, 0x3a49df533b51f775U,
  0x39297ef23b659020U, 0x3b9e3ba8302c92c0U, 0x1dad2a4b3a4d9d0dU, 0x3ad9b2dc3a9174a5U,
  0x39fda9641fba8443U, 0x3b723b6e9fac78beU, 0x3b7e02103ab79722U, 0x32b86f883ad5a4a1U,
  0x398d87283b82677eU, 0x37e646903954222dU, 0x39a4c67f3a21b97eU, 0x3a67fb143ab89a69U,
  0x3aad56803b93e30cU, 0x3b1486cb3a1e1edcU, 0x3620aed199fca51eU, 0x9caaef2c39b0fffdU,
  0x9ea65ee837e24af1U, 0x3ac106d89c38c4b3U, 0x36f87783199ab7a6U, 0x36dfb486391562a2U,
  0x3b504fee196f517eU, 0x3a8902cb3b83db9bU, 0x3a2bb5db38b484aeU, 0x3aa09a972f6a7cacU,
  0x3b106d11a00ab0d4U, 0x37dd662e9a6bbd7aU, 0xa2ee67cd3ba27775U, 0x3b81cb9a1d8c2e18U,
  0x3aaf9d003bacfc11U, 0x3b78e5ee3a590ef3U, 0x3825fcc13afc1bc9U, 0xa1978b9c3909f257U,
  0x3aa41ea03a6aebd0U, 0x3a6d50543a845706U, 0x3b5759923a36c31bU, 0x3ae670139cbc743eU,
  0x3b1f33143a4ae736U, 0x396c909b3b0e40baU, 0x328c1d9b3afb13eaU, 0x3ce214083e126880U,
  0x3e006f98bd965d7fU, 0x3dd9cf419c621476U, 0x3731574fbdb6026eU, 0x242223573cacef30U,
  0x3d8a6f4b3e14b9afU, 0xbdf160aa3b44d69bU, 0x21b53b513c0f6befU, 0x3ba4f771b6c9643aU,
  0x3d3216bfbd0fb96fU, 0x3b4e22893c702134U, 0xbd295d0a3dbf1ec0U, 0xbe2a339aa13610afU,
  0x1a9949953c85c2bcU, 0x3d95e105bb99f402U, 0xbc4cffbb1d5384dfU, 0xbdee308d9f969c40U,
  0x3a21bcba3cae1820U, 0x9e472788bdc441a1U, 0xbc37de253d48316fU, 0x381a4994bbd99b20U,
  0xbb5458353c7a688bU, 0x3cebea403d17efeeU, 0x3be3c2f7bd08990dU, 0x3da338ec3c10b98dU,
  0xb18ed230a1809232U, 0xa288c7cfba9c3772U, 0x1de902533adecfafU, 0x3db019579dfcd4b6U,
  0xb8518c4f97404c2cU, 0x397cdbe3bd0e6f3dU, 0xbdb01a169a2f2fc6U, 0xbd93daa93d2b3f0cU,
  0x3c028ad7bcc35e0dU, 0x3c9d30473480014bU, 0x3d7bab831c6a9739U, 0xbb86b1cfa28a2326U,
  0x9d5d209f3cef453cU, 0x3dbc745ea20c0842U, 0x3cb0b7c63dad07bbU, 0xbe0c22463c78d68fU,
  0xbbc4f5123da1c4b2U, 0x1eb13fd7bcde00d5U, 0xbc9acd6d3d28a5dfU, 0xbd84eee339ead1f4U,
  0xbc1e77773cc40ab3U, 0x3d5d9c6d21e53f12U, 0x3c181d953ac1e956U, 0xbd3a25e4bdb2812bU,
  0x25210de63d6ecee2U, 0x3a0706deb9f67d98U, 0xbcc7d5623d33485eU, 0x3d6af1239d9d155aU,
  0xb10569593d71091eU, 0xb10d89f3bb832fe3U, 0xbc1bf7713d1f69c1U, 0x3b8ab7a2bcc1f865U,
  0x1e98053a3b9846b7U, 0x3ccc1fe9b4b2aa81U, 0xbbc79fc73d3cdc19U, 0xba06eab83b32c492U,
  0xbbabfe43bbf64af0U, 0x3bd4616826b62fc0U, 0x2203557ebac0bf2eU, 0x3c6de28b3b09e1deU,
  0x3a0924499e005082U, 0x3ca421479d87624eU, 0x3d404790bb540ee9U, 0xb223d83bbd0a0952U,
  0xbcff5eef3ce8dffeU, 0xbc7550b0bcb810a0U, 0xbd130c98bce6e041U, 0xbcf0d695bc6f7721U,
  0xba9f1f2cbc8a55a6U, 0x3bd3ff89bc238641U, 0x35c376fd982ec0c6U, 0x9fb5b993bd1367efU,
  0x9c2ffda3bb2fd510U, 0xbb60379b1b8fb787U, 0x3707656120c4634cU, 0x3703a174bbe53428U,
  0x3cc0d273a1167a27U, 0x3c6a91aabd8221c6U, 0xbce4aad13b2de146U, 0xbc9b891a2943b81eU,
  0xbaf762aea0d1715aU, 0xbca182a719ccfa08U, 0x999be321bd42dcc3U, 0x3cb16aab98eb4ceaU,
  0xbb24191a3bed8cc2U, 0xbc348c21bcc3d3b4U, 0xbca32425bcb96c96U, 0x2135f0ffbc01b86cU,
  0xbc63cf32bc900767U, 0x3d10faa9ba53c726U, 0xbbecf51fbc6956acU, 0xbcdb1ae2a1163b60U,
  0xbd1a86363a0f6393U, 0x3be544763d1cfb49U, 0xac879ee8ba1812eeU, 0x3a4ecafc3b407d58U,
  0x3b498e713b5dde65U, 0x3b527a292256c7a2U, 0x350524973b75ae16U, 0x32b59a323a1e30d5U,
  0x3ad3a4673b5086faU, 0x3a94e90138911a40U, 0x1aced1a43abbb872U, 0x3b0a8cab36bac386U,
  0x3a8b1c0f3b7e9b60U, 0x39e32dac3b123aceU, 0x393d82fe3b27ebf1U, 0x3b591ac2b0963beaU,
  0x19a2ff4c3a10295dU, 0x3a9738b53a40f1b5U, 0x399e28559a82206eU, 0x3b3396e91e275ffeU,
  0x3b3b56863a6809ddU, 0x3401bb003a9c4a36U, 0x398c043c3b3cb26fU, 0x3840b96239799886U,
  0x399065c93a3294daU, 0x3a6061173a8c0c22U, 0x3a32bb1d3b75a543U, 0x3b01b4cc39f4b60fU,
  0x368ec7471a5169ddU, 0x9e1da20a399ddb7bU, 0x22a16752384e81f7U, 0x3a8eba39a0b186d2U,
  0x377e1b841eb545f0U, 0x37657a55392ed107U, 0x3b12d1e599da92d0U, 0x3a24b1aa3b282cd3U,
  0x3a15eb65388ea207U, 0x3a92cb7731f99a69U, 0x3aca66279bc6acd0U, 0x384b32a21c1cff95U,
  0x9bb2dd593b8779fcU, 0x3b397e369f661559U, 0x3a65317e3b878983U, 0x3b31762c3a3d4ab4U,
  0x38a4b1963ac09c45U, 0x17e3e1ae39438791U, 0x3a6f159f3a79f2b1U, 0x39e60b8f3a188f4cU,
  0x3b12defd3a132f79U, 0x3ab340e0a0dfa817U, 0x3ae11e7939f528b7U, 0x3938c37c3afb2265U,
  0x33d7489e3ab8bf0cU, 0x3c4cc07cbd11b08dU, 0x3d0e1dc4bc853e3bU, 0xbc9d733c1a180658U,
  0x3042f3dc3da89af1U, 0x314ef7673c225d7bU, 0xbb8bec08bb8cc4c6U, 0xbd175181386cf186U,
  0x9bdfb4fcbb2d27b8U, 0xbcf622ad3754411aU, 0x3c9e3755bc92ed55U, 0x3b76c597bce53a91U,
  0x3c1570c6bd0f8743U, 0x3db088bda92e178dU, 0x1ab2127e3bd0fdd0U, 0x3c4fc21b3c129983U,
  0x3ab42f489a847151U, 0xbbedb0a59a895375U, 0xbcf4abc03c654260U, 0x32a9c14e3cf6c3b1U,
  0x3b8afbd63b8b548dU, 0x3929d3dd3b7c1c5fU, 0x3ba632033c702244U, 0x3ca2bb763cb2390fU,
  0x3c52e9073d9cfea6U, 0x3ca2c2a03c03c33dU, 0x34ba82041a8926d3U, 0x1a6562a23b970f25U,
  0xa02e0e04b7c518c8U, 0x3b29a4f71ebf37b8U, 0xb7272c441688e4ceU, 0x353d504ebb752cceU,
  0x3be901bb1b51114aU, 0xb98dfd063d23b745U, 0x3c2d3f85bb718af7U, 0x3cc306723538ab87U,
  0x3cde8cbd20ad9e75U, 0x390ca2c39aba8638U, 0xa0d9da233d2dbd9dU, 0x3d2d3b421be90037U,
  0x3c6e23babcded3c3U, 0xbd32334a3c534e9cU, 0x3970d7c7bcdb0bb7U, 0x9e3cda8fb9fd008dU,
  0x3c2eef183c9fbd42U, 0xbc02e6c13b9d3fe7U, 0x3bdb090f3c81e9d4U, 0xbbe1d34b1fbd226eU,
  0x3d443f9a3b7244e1U, 0xbba9bf07bbc2d657U, 0x328109203c714356U, 0xbb380a76bbb3c90cU,
  0xbcd85b14bd05fbe7U, 0xbc1b6aa2210a31ffU, 0x37c074213cf333e9U, 0x2c969524bb80c48eU,
  0xbc7604623c72d0c3U, 0xbc27904f3c210b86U, 0x9d5482f0bcaa4f15U, 0xbcb3965032d66c24U,
  0xbbaa0a48bd143c36U, 0xba8d5da4bce8320eU, 0x3b5dbfa3bcbee4a4U, 0x3d42a88d30abac94U,
  0xa199c15bbb4dee33U, 0xbafd670aba324e70U, 0xba285c8b20bdcd42U, 0xbd75aa4f995f9946U,
  0x3cb5f5f1bb5f5758U, 0x298c5e663c43f213U, 0x3c580f0ebb6efcfbU, 0x3b8087e63c10366bU,
  0x3c569f543c2ebddfU, 0x3c6f769b3af6bc97U, 0xbb524bbd3c13fd65U, 0xbc0509563a229780U,
  0xb398e81498e9f700U, 0xa284272a3c7565feU, 0x9b1233533ac5d0d3U, 0xbc02f9d9a2d29183U,
  0x35a56bd71c9f0ce0U, 0x3896bdc43a866b4aU, 0xbc66bac59fb690adU, 0xbb2cd4ab3cb25e23U,
  0x3c0f96a6baacce6cU, 0x3c0aa2432b611310U, 0xbb19fb7a9ec39b22U, 0x3bb142a39e8e6c27U,
  0x9815cd723b9d77b0U, 0xbcf79cc197a03638U, 0xbb87cb90bd433e18U, 0xbbc60dc23c1ad525U,
  0x3ba3f8b23cc53e41U, 0x1e3feda73ba10a8aU, 0xbbdfd91e3af60eadU, 0xbb1babccba189ff2U,
  0xbc96e8753ad2785bU, 0xbc628905a1288d04U, 0x3c013df2b9eb2354U, 0xbb88c2ed3b81f3b3U,
  0x2d9d0cedbb5c2f66U, 0xbb5e0b2ebbad052aU, 0xbb30a94dbba4f6c8U, 0x3a1a04079d9df2a7U,
  0x36664b8dbb755ab3U, 0xb185914cba9b5d0eU, 0xbba31f1eba56ce5aU, 0xbb9964dcb85ff8d7U,
  0xa27d0335bb820d97U, 0xbaad24cfb700c1e1U, 0xbba0da18bb8526b5U, 0xbab371a5bb652f7dU,
  0xbb8da73fbb82a2c8U, 0xbbad4a3e317c6098U, 0x1c3cb580bab86094U, 0xbbb24097bb90d78bU,
  0xbad56ebb190278afU, 0xbc66832298bbb33cU, 0xbc96bdadbb875091U, 0x336cfd11bb293d35U,
  0xbb3c1c43bbb12254U, 0xb80a895eba8876a3U, 0xbb5b6cbdbb65941eU, 0xbb85e21fbb8d6162U,
  0xbb7c8a3238e72a80U, 0xbbb55ed4bb501511U, 0xb4ae1b5017f1ada1U, 0xa0913612baad191aU,
  0x9ab4abadb80b17eaU, 0xbb8ae49717775b78U, 0xb405172299b0aa38U, 0x35387802bb5aefb0U,
  0xbaea16849b22439eU, 0xbb92cf9bbb360d44U, 0xbb700363bb50fc97U, 0xbb83df97b48f9590U,
  0xbba1794c9d4a4673U, 0xb7d1a958180683dfU, 0x214a480ebac48edcU, 0xbb34ce1aa04e6b78U,
  0xbb8050b53bb2c22fU, 0xbb0ee723bb64e260U, 0xb440242abb9aab43U, 0x9e2100ecbb6b75d2U,
  0xbba3f740bb804068U, 0xbb73c969ba50f9ceU, 0xbb9288abbb65866bU, 0xbbc2bacf990cc790U,
  0xbafbb0a9bafbcfd5U, 0xbb6412cbbb7c74d6U, 0xb25f71c9bb91a071U, 0x3a947997bb8880afU,
  0x3bf25b5d3c046819U, 0x3ab7f70e21e738ceU, 0x2ceed7283c2f5f93U, 0x3158739c3a95387cU,
  0x3c0337043c7a5e4dU, 0x3c44683eb5a2fe6cU, 0x9d908d003b9f165bU, 0x3b367e183726f4d2U,
  0x3aab1f8cbc1b6ac7U, 0x39f60ec4ba525bedU, 0x3b03be6c3c589447U, 0x3b5bd0fb21a627e5U,
  0x1d9f9ee23a4a6e9dU, 0x3b9872b93a7bb7c7U, 0x39b9ae449a69f83dU, 0xbafb5c67a075c144U,
  0x3cae7a923aa65197U, 0x3395066c3bd22a7bU, 0x396961b7baa7f725U, 0xb66107933a2c6598U,
  0x3a9f913f3b0c9e1aU, 0x3b47fa103b560c6fU, 0x3a7ccc9e3c023734U, 0x3be27cef3a9aff5cU,
  0xb511b7bb9c5b51f6U, 0x1b632ded3a745664U, 0x198a2e91b68dcd91U, 0x3bc9d11e9c38b9e8U,
  0xb5a876e918b635b9U, 0xb58f0de63a957dd7U, 0x3b4f6311215b4ef5U, 0x3b5dab0c3c4b0600U,
  0x3b0397f83993e697U, 0x3b41a530b0c510a6U, 0x3b488019989bb1cdU, 0xb51b35091d1fab40U,
  0x9a2e65fd3cfc478aU, 0x3c3eee5722f175d3U, 0x3ac637b439bd993eU, 0x3aba83693b0f24c1U,
  0xb636cab0bb98729cU, 0xa0499e543ae6610cU, 0x3b5fc7193b133e98U, 0x3b7cbc013a36e5afU,
  0x3bae419b3adcb8a4U, 0x3b3395999d9be366U, 0x3a45a93239f39e38U, 0x3ad3e9a23bca7487U,
  0x3386211b3b68ea1eU, 0x3c0156f43dbb3ae5U, 0xbc149626bd4f0ca3U, 0x3d43cda4a058f1fbU,
  0x36d564fabdda7390U, 0xb538326c3b9c4c32U, 0xbcb807d0bdf9b5ccU, 0xbd002e3cbb3c1ff2U,
  0x1e574fc5bd5ef2c6U, 0xbc9ff61438753ce5U, 0x3b769714bde831f4U, 0xbb3fe6bbbda7320eU,
  0x3ba211373bbed6f3U, 0xbc20032734940a03U, 0xa1522bb83b891c3fU, 0x3ce268efbc09523fU,
  0xbb9996cd9e408cb3U, 0x3d91b05a202f32faU, 0xbbe422a73b8bc0eeU, 0x3707eb0b3c97cdd5U,
  0xbbd725713d350c42U, 0xbabc1695ba335774U, 0xbbaaa59fbaf3c611U, 0xbba1ac4f3c7223a1U,
  0xbb9315f13d2b3777U, 0x3d74bef23b69e829U, 0x34ea76fda23ff71aU, 0x186faed4baec54ddU,
  0xa137cd72b8ca35f1U, 0xbbe986631b169639U, 0x3690d02f9d4c63f1U, 0x3715f395bc92c281U,
  0x3d4206b022826f9dU, 0x3c8312963c7807cdU, 0xbb90b813bc09088bU, 0x3ae3080d373d9255U,
  0x3b80683f9feefd17U, 0xbab61da79f02e17bU, 0x20b65066bb8245f8U, 0xbc475c7aa2bbd9e7U,
  0x3b71fd083c0a02c4U, 0x3d071098bbac2094U, 0xbaabd2bc3caca8c7U, 0x9d03706abcac3081U,
  0x3b8a8da8baa396beU, 0xbd5c659a3a9d0903U, 0xbc018cad3b0a4a14U, 0x3d31ec3c98f15864U,
  0x3d91960bbb2490a0U, 0xbc6566f1bd8962bbU, 0xb52655b43c72086cU, 0x3a81dd163b5dbdb7U,
  0x3b6889103b8bf40aU, 0x3b6cd9632097830dU, 0x34d198c03b8a0daeU, 0x31a42ddb3a3a8b44U,
  0x3b11730f3b710600U, 0x3a9ee5b237daf7b9U, 0x9ef9906a3ae6a4d6U, 0x3b40cb9b370b0127U,
  0x3a9cd5f03b54c02fU, 0x3a23478b3b322c58U, 0x39278ef83b42cd43U, 0x3b849e8fafdbe39fU,
  0x2151cc5e3a2d06dfU, 0x3ab7c7603a7f00f8U, 0x39d3936020e18c48U, 0x3b65e67c9f3f12d5U,
  0x3b5ab86c3a984e92U, 0x32f74ac13aba7ecaU, 0x3955cd993b73af3dU, 0x3777119b393af79dU,
  0x3988ed1a3a05fe06U, 0x3a6e13af3aac1e6dU, 0x3a886b8b3b7fcd27U, 0x3af5fcab3a0a9899U,
  0x34e90b3fa2f5cdd4U, 0x223fa5eb399c6181U, 0x190061d0374a12dfU, 0x3aadd2b41789da93U,
  0x35c123dc1ff15a6aU, 0x361f73b738e9cb2cU, 0x3b36c43196b17b40U, 0x3a5ef51d3b56f313U,
  0x3a1e346038844271U, 0x3a9e5fa830273fbfU, 0x3af76ea81fae794fU, 0x3786c6461d1239e0U,
  0x98b7cadf3b976956U, 0x3b62f97d177ea044U, 0x3a9013313b854427U, 0x3b5f56d93a4fc170U,
  0x3786a4f33ae7324cU, 0x9e9b979a38e01b16U, 0x3a9228bb3a5c7f70U, 0x3a3d9f703a523e9eU,
  0x3b43bd9d3a2b0b38U, 0x3abda4e91fe7342cU, 0x3b0d5e6a3a252dc8U, 0x393f72353ae990faU,
  0x32bd77be3ade55b4U, 0x3a2b95b33b1d60edU, 0x3b3344053b45e95cU, 0x3b657c371c2f76c9U,
  0x3396707a3b639234U, 0x330372b639f5614fU, 0x3add3d5a3b362cfbU, 0x3a90837a375a802bU,
  0x1d0401db3aa22bc4U, 0x3b0b3dee36c6e6a9U, 0x3a440fb83b717cd6U, 0x398534b43b0c3c92U,
  0x393253ee3b20e9c7U, 0x3b52e856b1f60fb9U, 0xa2defdae39d22fc3U, 0x3a8298db3a0a4942U,
  0x39175a419981ac04U, 0x3b369a5da2a7aaddU, 0x3b2c9fdd3a0aed5aU, 0x3428be9c3aa0dcc2U,
  0x390f7fc93b2e5e41U, 0x372449213902bf80U, 0x390ec5653a0e72efU, 0x3a2e88723a73afa8U,
  0x39f6b3cc3b578383U, 0x3ad1afa439d77e76U, 0x3515bc81193ad3cdU, 0xa152e46f3918293fU,
  0x1fc86973373c206fU, 0x3a8591899f6c29beU, 0x360d15ff9e6784b4U, 0x361928f33875d6a2U,
  0x3b10a58f1e16f3ddU, 0x3a31437b3b1ae59aU, 0x39e6ccde375651c6U, 0x3a7144e23187bf3cU,
  0x3a979f939cbbb0ecU, 0x374a597e1fc0a9c3U, 0x1b86f9043b4f2c15U, 0x3b290be09f494ac0U,
  0x3a1317d03b5dce95U, 0x3b0b3b793a1d479cU, 0x37493e923ab68936U, 0xa2805d3838885c0eU,
  0x3a659eec3a3d2925U, 0x3a37f55c399bf99dU, 0x3aff48a83a0c4be8U, 0x3aabc409224a1d81U,
  0x3ac41124398ce41fU, 0x38b22a933ab72142U, 0x340fa3f63a91871eU, 0x3db34e09bb481c52U,
  0xbc111b103c849635U, 0x3c1208f999e8720eU, 0x23c38eea3bf4f5d6U, 0x23e746f93db4396fU,
  0x3cda9feabbd858e3U, 0xbc81c6923c330c15U, 0x189ef088bba0d910U, 0xbcdda1d7b90ec359U,
  0x3e09be7e3bcf9b6dU, 0xbc5739fa3a4f0da2U, 0xbd18e6c1bc025787U, 0xbc2fdbb79e5c9724U,
  0x1ac479903d8c8abbU, 0xbc20446d3d0ca6e7U, 0xbd3b92431f4b4c13U, 0xbca46c221b03a081U,
  0xbb382c9c3d19bca5U, 0x2662b8dcbc83710aU, 0xbcc879563ca9a6aaU, 0x3c52b0c5bc620574U,
  0xbb91f9313d23e6faU, 0x3d80a7663d2dc08aU, 0x3d3e0be3ba22a7d5U, 0xba8613d43da6dd8eU,
  0xae211a50203b119aU, 0x18109f91bbe1e8faU, 0x981f8d363b2fda3dU, 0x3d27c99b1d056cb3U,
  0xaef969081ffbebbbU, 0x348a5e69bdb81bb3U, 0xb7ee1e601b2219bdU, 0xbce5c8713c607382U,
  0x3ca2fb2ebd516776U, 0x3d65279c32552b12U, 0x3e334da422d23528U, 0x3c87b28999551147U,
  0xa0ceba0bbbdb676dU, 0x3cd9707b18aa681eU, 0x3d98a148bb7f2a6aU, 0xbc25c6033d78ba5cU,
  0x3c890884bc567fc6U, 0xa113b5dabda181b1U, 0xbc5ff1613de41dd5U, 0xbcebbd3d3ad04481U,
  0x3c79c2d83dc2fa58U, 0xba47bef61e869162U, 0xbccea302bcc9b9cbU, 0xbd8e995bbc1a6b50U,
  0x25f30fb13d58dc17U, 0xbd9d4d623ce430b2U, 0x3b8e7f653c21c001U, 0xbbc186d82202a621U,
  0xa6281ecf3bb10d97U, 0xa73494bcbd98dc1fU, 0x3c2bbd453c11c22dU, 0xbc883375bc33a5bfU,
  0x1a1663e43b0c9bf6U, 0x3cc78b773926acddU, 0xbdbc3f5f3c55de80U, 0x3c0e4d9c3bcdb23fU,
  0x3b26e369bb284c91U, 0x3c80d4141fad99b9U, 0x1ba05c33bd8c9147U, 0xbc122ddabc92706bU,
  0x3d13c6b51d7f659dU, 0xbcb7afe51e3fae28U, 0x3c78bbbebcca4b6cU, 0xa8548f0dbbdf0388U,
  0x3c2c6cc2bc8b11dfU, 0xbc624cd13b9d5deeU, 0x3bc320fdbd5c4fc9U, 0xbd5cdb19bd29cf3fU,
  0xbcb92feabc7ec867U, 0xbd053803bd8bfdeaU, 0x32c945319fdda156U, 0x20267e27ba637f73U,
  0x9fe7c675bb358077U, 0xbc14c07a1b3f4381U, 0x344cb6681bbfb8a5U, 0xb481d81b3d9f1073U,
  0xbd63d5901e23337eU, 0x3b19df4b3beb1a78U, 0xbc60c2473d512acbU, 0xbd81245035012f1aU,
  0xbe0731b01c11f19eU, 0xbc6e81441d2c9c93U, 0x1dd963013c0bc7baU, 0xbd3bec4a20c3d1baU,
  0xbd614ba1bbb334c5U, 0xbc4ed942bd7f685cU, 0xbc5bb6fd3d1d499fU, 0x1cc7378d3d810e08U,
  0x3caa9c8bbde66d40U, 0x3ca252023b9669e4U, 0xbc6095e1bda52c93U, 0x3bfe4e691e8da65aU,
  0x3c8806e83c248ec6U, 0x3d7b72e13c829ca0U, 0xa83f11e6bd778eadU, 0x3d6b2800bb9f22d2U,
  0xbd0b6bb5bc1a5a83U, 0xbc54d74b9e14a5e2U, 0x274891e43da57a93U, 0x2c325c9f3d339c0dU,
  0x3b937648bced68d3U, 0xbd3c6ffc3c1fa2cbU, 0x9eff7bc33c8b3bf7U, 0xbc26d2c1b77ee4cfU,
  0x3d7133bdbd093b65U, 0x3c9a635b3d33aaa0U, 0xbba01e21bc498c8aU, 0x3d1109d422918b6eU,
  0x1e43e5c53d15622dU, 0x3bee73c83cc14df2U, 0x3b88a60b9c665be6U, 0xbd72d2f31904e7d9U,
  0x3d8872703d2eaac2U, 0x2d68366c3c4360adU, 0x3c842b683d2999f9U, 0x3bbbda4c3c1599a0U,
  0x3c6f6fdd3d1ce482U, 0x3d2d94a53d07bb34U, 0x3cf12fd23d8d68abU, 0xbca050dc3cf284abU,
  0xb4d73d899722ec26U, 0x9bd70ce23c851717U, 0x9a6485f23aa6654bU, 0xbbbaf8ea1e8bb7a5U,
  0xb8088a139ed83d59U, 0xb7e95f44bd58efddU, 0xbb17a6e71fc2bc68U, 0xbd0a9ed13c45d662U,
  0x3cf478e6bcf7e43cU, 0x3d458c9b3401dc14U, 0x3dcc261d2108bae3U, 0x3bc452d09dc8d292U,
  0x224c6f16bd1cb989U, 0xbcbdd7ad9fc1fb35U, 0x3d38a60fbc0542e7U, 0xbcf108683d231b11U,
  0x3bc30361bd2912a5U, 0x19007ea2bd538654U, 0xbd0e7a923d78c2fcU, 0xbd21a04b3ca8a510U,
  0x3cfad3c83d25365bU, 0xbd2df1012270e3daU, 0xbd2a6ecb3c9c2071U, 0xbd773439bc151020U,
  0x2d5bcffe3d19d7f1U, 0x3c58f76f3bf42f92U, 0xbdca8f583d8bec44U, 0x3d8fd657192196b6U,
  0xb68d71fcbe0da25eU, 0xa3f49a203bbfe17eU, 0x3c0e2f92bd34c436U, 0x3d8a52aeba9db2f5U,
  0xa1409f203d9f2d65U, 0xbd3f8e76b6810cc6U, 0x3c5f9fbf3c4dde33U, 0x3ad670f43d8f1d8bU,
  0xbcb4b40d3d1fb902U, 0x3d801f90b4a46aabU, 0x983f783b3c76760bU, 0x3ce7e324bb21b345U,
  0x3ab7597e9e796413U, 0xbc9624d31cce0a96U, 0xbe01bc3a3c1c4a1fU, 0xa50cdc58bdc52755U,
  0xbb3f4b713db97b26U, 0x3a8a861ebb9f9aefU, 0xbb5a1933bc39bf00U, 0xbb61a7f0bc86638cU,
  0x3b50d9973d7721c7U, 0x3d6140d13a17ff08U, 0xb71a4ac09c2d0b2cU, 0x20935a07bb8f0f92U,
  0xa16c100a3900bde1U, 0xbd896b671ef9b3caU, 0xb7af97b821a4fb76U, 0xb7e84037bc8b3feeU,
  0xbd1161ad9d10921eU, 0x3ab8b4653d694e6fU, 0xbc54194cbc39b17bU, 0xbbbc9f09b44ac330U,
  0x3cb4a9d1209bfb6cU, 0x3bb2cbb222db3440U, 0x98f21108bdd5b2d4U, 0x3d9dc8b91c11d34cU,
  0x3bb991b53dceb35eU, 0x3d1369aebb283cc6U, 0x3aec2697bd0e3fc9U, 0x9a91369dbc9c0e08U,
  0xbd6843ed3c272334U, 0x3c7b8e1c3b8b15d5U, 0x3d901ac1baa4d045U, 0x3d27f19c9aa3d40eU,
  0xbdef644a3a0d3771U, 0xbc8609e73d42ab4fU, 0x2f8d606fbb772d5dU, 0x3d539af03dbc27bfU,
  0x3e000e3f3ae48f25U, 0xbded7c8d9ebdea03U, 0x35a28ab9bd1e9776U, 0x203e98803d13fbebU,
  0xbe1f1b553ca6b92dU, 0xbdd2e65f3bac6f09U, 0x9c926bebbd9df840U, 0xbd82f57d358eedacU,
  0x3d84adfc3dc9fcfbU, 0x3c5651afbd00c284U, 0x3cb7837fbd31ed68U, 0x3e11f7f7abb90f1eU,
  0x20c49ee93d0463e6U, 0x3ce677b43cd9e70dU, 0x3aa71c669f5844e4U, 0xbcb481b319f54be6U,
  0xbe0420a53d3d0acfU, 0x2d1fc5e63ddb1ceeU, 0x3bb988a1bd4345f0U, 0x3b4928693c242b18U,
  0x3c4e55973ccf13c5U, 0x3d4766483cf79e37U, 0x3d10b2303e096be5U, 0x3dc047283d01aa85U,
  0xb10106469a200f01U, 0x9e042f953c54ff76U, 0x9f0fddcdb98da595U, 0xbd96f8b7229af435U,
  0xb50c20589f405cb8U, 0x370c13e4bd19fadaU, 0x3dd35829a023f524U, 0x3d5d0bcd3dd83120U,
  0x3cad4045bc91bf9cU, 0x3d01d7f5b3e8d178U, 0x3db3e8ec9c90b7eaU, 0x3b8519081f97add0U,
  0x9ae284c53d58afa6U, 0x3d86a0a41ad88af0U, 0x3d4eb89ebd933e65U, 0xbdeda6163cf828ccU,
  0x3b8ec3abbda90ed8U, 0x1f4eb8e8bda804b4U, 0xbd8c790f3d997805U, 0x3c8e43813be6376eU,
  0x3d9cc6213d47a592U, 0xbb848ec71a13a416U, 0xbd3ec55b3c303312U, 0xbd824719bd16ef49U,
  0x2cbf7f9a3d25efc1U, 0x3cf319243cf8d2f7U, 0xbc8876703d4d1431U, 0xbd5358971f9e4ea1U,
  0x33ef3fcebd2bc975U, 0x3380fa883cd0e969U, 0x3c446dcebd5c4f55U, 0xbbb974da3c4452ddU,
  0x9ff51f5cbd3c5df9U, 0x3bc72e7338852f30U, 0x3cc3aed9bca300dcU, 0x3bd8dfb23b6abd9fU,
  0xbb3169653d54e2b7U, 0x3c1d656ba3b8e208U, 0x2150283b3c853e9dU, 0x3c2899153beafcf2U,
  0xbc028524990e6627U, 0x3b1c245b18371f37U, 0xbcebc1b83c58a597U, 0x348a87843c0d213aU,
  0x3cc057093c8c5f65U, 0x3bc0ef383c8b1723U, 0x3cb3761f3d032e11U, 0x3d1476b33cb75371U,
  0x3bda3a303db3cd51U, 0xbc78c6663ca03d28U, 0xb65d83d01d9c289fU, 0x1d0e2e763cbb3ae5U,
  0xa07ed898b899144fU, 0x3c905c4f22c1a14eU, 0xb79cdaa0a104ed63U, 0xb6c30509bc3bc6c1U,
  0x3d2a491f981b2c05U, 0xbb4591dc3c3c1c1bU, 0x3d0a3419bc45178dU, 0x3d32521335f6ca14U,
  0x3d08a0f39bbb1fc0U, 0x3c2858b71ceb8164U, 0x1e8f831dbd867bb1U, 0x3d638d959c8bf6cdU,
  0x3c61b1ffbce6f116U, 0xbd3992c43d02c3f2U, 0x3c0d2b12bd7d789aU, 0x9cc5b3b7bc2f9182U,
  0x3c0cac7a3d3358abU, 0x3c5b66cc3c005397U, 0x3beff2c83d01dd0eU, 0xbc43164a226d545aU,
  0x3d1ab1d13bf63259U, 0xbc83248ebb6b0bbeU, 0x34d267d43cacf792U, 0xbd83ffc0bdc93597U,
  0x3d989befbaa358c8U, 0xbd64e0fa9f11decdU, 0x20f89401bcce227fU, 0xa581f0d7bd61e917U,
  0x3dd6c80fbde4dac5U, 0xbc2f09a1bb303943U, 0x9f05dd09bd24dff0U, 0x3d4297e7372883f5U,
  0xbdbbe700bd801074U, 0xbc6673bcbe11382bU, 0xbd93c24fbddc9492U, 0x3d5bd3fd9d8a16ecU,
  0x20edf8a8bd4b0a08U, 0x3cc5c494bd3abb76U, 0x3baa3e1a21d36c1aU, 0xbd99c9bba297b604U,
  0xbe0c4bc7bd6a7400U, 0xa6b9152ebd9fcd1bU, 0x3ab9b1afbd4fb3b0U, 0xbb558a22bafbfaa4U,
  0xbb190198bd31ac39U, 0xbd0b43c63cdc9077U, 0xbd4ad9bdbda5bf16U, 0xbc2d5d89bcf5984bU,
  0x34ebf4fe203b3256U, 0xa128a7f3bbec8364U, 0x1d0b781bba2f8079U, 0xbd8ac6a11a49424aU,
  0x359900c29a72b39eU, 0x3581f1023d30697aU, 0x3d973b729a1c9c6fU, 0x3c85e88a3e0109b1U,
  0xbc0f96173cd3fa01U, 0xbd12263435dfceccU, 0xbe1c1a6d9b65bce0U, 0xbaf375d01a143968U,
  0x1b0736c6bd935bc6U, 0x3c30f89b9f669cd0U, 0xbd926ee63c5ab16fU, 0x3e1d58aebd0d5a1bU,
  0xbb25c5893d488aebU, 0x1ceb70193dda082fU, 0x3b03a766bd7af288U, 0x3e1b6668bc8096c8U,
  0x3d8ffd7fbd5774b8U, 0x3dea982fa1b12b0aU, 0x3e009993bb0fc364U, 0x3d6492b43d85845aU,
  0xa5097854bccefb3eU, 0xbd6d1a183aa024bbU, 0xbcb5827dbc00b945U, 0x3d9f2fca1d3e708eU,
  0xb3dbd979be29770aU, 0xab99c4a9bd410f3aU, 0x3cbae5933c5f646cU, 0xbdbed8dcbc2d5242U,
  0xa22a48c83dadd051U, 0x3bdb0727b422b736U, 0xbd81a99eba5da006U, 0xbc269404bd19d829U,
  0xbd8c6211bde0dc89U, 0x3db6466e2434a9e0U, 0x1b873bd9bd2bbf60U, 0x3cb90f52bcf3e295U,
  0x3bed32e61a197756U, 0x3d0f6e79a1ac2aadU, 0x3e06bf9ebd42af8fU, 0xacabaf173d8287f2U,
  0xbc453f5ebdd76a34U, 0xbbbd1104bbbb4d44U, 0xbc55e61cbd802dbdU, 0xbd508284bcc0ab20U,
  0xbd09bdb23e2bfd81U, 0xbdc6529ebcd51c28U, 0x359c15181f17a09aU, 0x98dcd7e6bc682a5dU,
  0x1c1f7cdeb9fb98a5U, 0xbde585a69d9689bfU, 0xb6046fdc20dc5cc7U, 0x35fc48da3d24a332U,
  0x3cf1aaa81ad06fe5U, 0x3b8a2d1dbdd06d0fU, 0xbcbca2603cc05af1U, 0xbd14629335f3e453U,
  0xbdbd4db42120a43dU, 0xbbf7a888a2cceeceU, 0x1ec994013e00e392U, 0x3d4c51049e1b9058U,
  0xbd507995bdb0674aU, 0xbd5a6b8cbd301365U, 0xbb99ae46bcbce83dU, 0x17e52f113d804d6eU,
  0x3cfa9bc4bda0283aU, 0xbdc191b5bca2f4eaU, 0xbd9852acbd6013a3U, 0x3dae17a91b2e6a95U,
  0x3df5c9b4bbd52052U, 0x3d2d884abd655fa4U, 0xac9bee38bd885c38U, 0xbba90cf5bd1934eeU,
  0x3ba396f93c98cb70U, 0xbd28939e1c169068U, 0x3608d7e2bbd09415U, 0xb29e402cbb2fb2bcU,
  0xbc984875bd76be05U, 0xbc45fe8aba9add5eU, 0x997359c3bc1350e7U, 0xbc68e7e1b70c7835U,
  0xbba1c6df3c476dfcU, 0x3a583235bca7d3cbU, 0xbc56511a3c3f361cU, 0x3b94daae343c9b22U,
  0x1cb065c5bb62b68cU, 0xbb6e78cebbb7d03aU, 0xb9a5f25320d1a11cU, 0x3c95f2211e24fa92U,
  0x3ada11c1387a369bU, 0xb3f1082dbbdc5f0eU, 0xba99169cbbe5b712U, 0xb8b7232dba84de1cU,
  0xbb6e45debc2d1751U, 0xbc532acfbbadc538U, 0xbad8d678bc05d331U, 0xbb835006bba2a41cU,
  0x35d45b6c1cffd58fU, 0x9ea27929bb73e8c7U, 0x9b89097a382d61c2U, 0xbb3abd4e1da8c50dU,
  0x38aa53ab9c8763f5U, 0x3721401dbc143c8eU, 0xbcf75d04997b91a4U, 0xbbf6cc903c9c2f32U,
  0xbc241373bbe60170U, 0xbc4733cbb2823351U, 0xbb59fef9223c1f89U, 0xb984f3539cf5118fU,
  0x9d806028bd1d01e0U, 0xbd02fbde1a020dfeU, 0xbb84ff433c2fa036U, 0x3c56cf12bc2c5159U,
  0x382ab181bc11a086U, 0x992fdf5fbc01263aU, 0xbc5f7170bbf8567fU, 0xbb31b9713a9698b2U,
  0xbcbe2101bbb03591U, 0x3b2030a097c06990U, 0xbbd21aa43a95aa4bU, 0xbb7a243e3bbec606U,
  0xb3da6edabc4b7dd5U, 0x3b62f26cbc11d06cU, 0xbbfb6fcf3b487664U, 0xbcbc62a097838020U,
  0x2e02388e3c880b62U, 0x35b8a8e03b74d277U, 0xbc80f05f3d0b1629U, 0x3b4902aa3c5e4191U,
  0x1c510db0bc86cec4U, 0xbc57ba3835fa938aU, 0x3b388f533b9ad774U, 0x3a8773c3bc2ffc6cU,
  0x3bda259a3bf9442eU, 0xbc742eff24850146U, 0x990aa6733aa7f291U, 0xbbf822b9bb276b18U,
  0xba98f31a1a013145U, 0x3c40d6e71903326aU, 0xbc940aeebafa999eU, 0x36ca65f4bc277accU,
  0x3c4522733bdca713U, 0x3c1029b53c2e7420U, 0x3c7104b33c9c1e7fU, 0x3c3457cc3c05120eU,
  0xbaf2ceda3b97a013U, 0xbc1e87d93b59054dU, 0xb70e6c9319c66c42U, 0x1b500c673c872d5eU,
  0x1a9b9a1e3b3543b4U, 0x3b81b4171a81220aU, 0xb7f7c03a9d47a295U, 0xb7c7b816baafa7bbU,
  0xbcbd121c9a079b52U, 0xbb427ab33b7faebcU, 0x3c761400bb888531U, 0x3c6747efaadb98c2U,
  0x3bbb95cc99d3bf35U, 0x3bfe811618e078a3U, 0x9ea1b5aebce61ca9U, 0xbc1b832c21494082U,
  0x39c03ce7bca788f1U, 0xbc4a7a263c8d89e6U, 0x3c054fcebc5c4b63U, 0x1a942a903b0fd3d4U,
  0xbb27a2983c343bd9U, 0x3a4e5d013987e274U, 0xbc0333173c12bb53U, 0x3b8f11dc2188391dU,
  0x3ba42edc3963783bU, 0xbc13285dbc8fe919U, 0x366645cc3ae8b7bdU, 0x3cddc675bb6f6f40U,
  0xbbe9ce043bdfb7a7U, 0xbd04c65699089628U, 0x2fbb3cbcbcd893dfU, 0x2fc7a3fd3c892969U,
  0x3d0cff9fbc1af2aeU, 0xbc96d0ac398b2428U, 0xa2995bdaba9fccdeU, 0xbbf55a0a3868505aU,
  0x3ccd15973d6a4dd0U, 0xb9cecaf6bc834e4dU, 0xba871ec3bc2b8c37U, 0x3c646022a4601139U,
  0x993dbf933c86b62cU, 0xbaceec313b6a8be7U, 0xbc2331b399e9aba0U, 0xbcccdf019c5da832U,
  0xbd19257a3b92d259U, 0x33d08a5a3b56437fU, 0x3be3da003c3ca83cU, 0x3a69ecd43c0f3b27U,
  0x3bf0e86d3cc4c8e9U, 0x3cfa05783c90d15aU, 0x3b4c1cd8bcdce9f4U, 0xb8ca83383c84cc79U,
  0xb3fe9f999808149aU, 0xa272a0243c24d6e0U, 0x1ce94f0539eaa67fU, 0x3c1455549720a93dU,
  0xb5e7de319d8646c2U, 0xb4602e64bcf85c32U, 0xbbe452c3207eb894U, 0xbc685a6fbd193998U,
  0x3ca63403bcb39847U, 0x3d053fe534ff07d7U, 0x3d20049518714764U, 0x392f9a2322fa34dcU,
  0x18e840093baecc6cU, 0xbb7bbdfd1b4b8fd6U, 0x3c5dbf63bd2153dfU, 0x3c4b25a43cdc2b05U,
  0x3a03d594bbbcbcbeU, 0x9dc6e69abcf5f20cU, 0xbc5a9aa73d10ad30U, 0xbbfca3473ab32d76U,
  0x3c25cb3c3ca8c9a0U, 0xbb52e5f999927081U, 0xbc6c4463bbc61c88U, 0xbcfbd902bba438c5U,
  0x339185ec3cb8617eU, 0x3a2244093b0f2a4eU, 0x3b2af1963b4247b1U, 0x3b68e0f018174b25U,
  0xb50f98873b7ab57bU, 0x33485ed039dfffebU, 0x3acccaf43b3f0440U, 0x3a943a4536d6bcc0U,
  0x9f0242b83a965eadU, 0x3b01164236e2cbd8U, 0x3a4151a93b7f5c0cU, 0x3947dc903aff9f07U,
  0x39369b073b1b68d4U, 0x3b3d86bab1d7d806U, 0x9f936ccb39ae92a8U, 0x3a6519ea3a02c8e2U,
  0x38abeb34a1062722U, 0x3b3b464c18d9ad69U, 0x3b116fb939df18d5U, 0x347f9bcb3aa3a49aU,
  0x38f4e9bc3b2248c6U, 0x3753666a38d62093U, 0x38c2481d3a094c0eU, 0x3a17f6e03a63b218U,
  0x39df85883b4f1502U, 0x3ad05f0a39b4f913U, 0x36206bbf196fcaeaU, 0x9b58b6af38e36788U,
  0x9b7c1ccc37aa91abU, 0x3a7a1e6c17c14916U, 0x3706649fa23f5bc7U, 0x36bba07a389bed44U,
  0x3b0e85401a94f1f5U, 0x3a2cf98d3b1d2edcU, 0x39c76fea36b92fafU, 0x3a6850a131dcd96aU,
  0x3a8152361b97a6d7U, 0x377894ec9f660eaeU, 0x9e19d0ba3b4cd80eU, 0x3b1cd09f22cc09a8U,
  0x39ed9f963b505a07U, 0x3b06ef9f3a1217edU, 0x37bd14383ab7b980U, 0x18af5d5738c25ddaU,
  0x3a5f85cc3a41cd0fU, 0x3a4ac059395214b1U, 0x3aea246839eb870cU, 0x3aa8ba56991028a6U,
  0x3aaca9d73953543aU, 0x389a62f53ab0a535U, 0x3461031e3a95c519U, 0xbac3e253bbf4c02bU,
  0x3ba8a476bcbd53e4U, 0x3c9b20329c6a20f0U, 0x35c92c983b5c1919U, 0x317b3844baaedb0aU,
  0xbc0c9020bc004101U, 0xbc8644f23c83c00aU, 0x9eda4e64bc67f67cU, 0xbb5f45863596226eU,
  0xbac74d01bcb178cbU, 0x39bf43f43bd5b179U, 0x3ac6d1d23c1aaa09U, 0x3cdcf0a332e37ed3U,
  0x222e87deba31814aU, 0xbbceb65dbb2ddf2bU, 0xb9f52ced1a90b476U, 0x3cefd6039e183313U,
  0xbcef3769ba8a9b39U, 0x328e3ecbbb5f0fbeU, 0x3c83216ebcadd992U, 0x3bfd97f83c314bd7U,
  0x3c9e871d3c46446eU, 0x3c1e00ce3b57cbabU, 0xbab9a8cfbc752b6fU, 0xbbb349c53b440edfU,
  0x34cfbfd89c19489dU, 0xa0de9e2f3c75cc0bU, 0x9b2b428a3b393ed2U, 0x3ad08d701c2842a5U,
  0x35e2ee9e221a4822U, 0x36996c67bacfa1dcU, 0xbc4ca02f1bebe7adU, 0xbba64286bc50bba0U,
  0x3c74d811bb4610f5U, 0x3bf8e35bb07f16c4U, 0xbac32aea9ea27493U, 0x3c118bae988edd30U,
  0x9d08be91bce26002U, 0x3a9292eca2fa9a28U, 0xbb22085cbc93e26cU, 0xbc29e4943ba54521U,
  0x3c0aa5c8bb7e438dU, 0x9c4d69ff3b377683U, 0xbbf6f86d3b900849U, 0x39c820993a4a3491U,
  0xbb89935a3bcbc06aU, 0x3b4ed88d219f2d40U, 0xbc9b5ccb397af6f8U, 0xbbc8420ebba2a9ccU,
  0x326baf2abb5ab1b0U, 0xbaaa763bbc5dd4f6U, 0x3b02743c3c5365d2U, 0xbd2c22a89967d421U,
  0x35106657bcd7406eU, 0x2ad41516ba8d8cdbU, 0x3baf38c6bcb8cdb9U, 0x3bf6479a3887d0b4U,
  0x1dbb9369bc1d554aU, 0x3c18553435a90950U, 0xbb114b81ba89da94U, 0xb9e19d353c365150U,
  0xba5fd24dbd037e1bU, 0xbb8e737caabe1514U, 0x97f0015cb9a22a65U, 0xbba3aca8baf622c3U,
  0xb9eed88aa1f68f2aU, 0x3a428f7a218d3cd7U, 0x3ca9119ebaa0d3e6U, 0x2bf4f8f839bc8540U,
  0x3948fdd9bc75077bU, 0xb4f4b76e38cdad78U, 0x37210104ba187047U, 0xba395899bb39d70eU,
  0xba8ff078bc8cd250U, 0xbadadf9cb9ddb024U, 0x361812db9a04fc3eU, 0x9efc46e239307d3aU,
  0x20c924223804e3baU, 0xbb72dcf69f0599d3U, 0x379f18ac1e81058fU, 0x36bd7811bb17edebU,
  0xbc42334121fd2747U, 0xbadc6eecbc21db0aU, 0x3894f962ba8d117cU, 0xba19d6fc33e357b2U,
  0xba8fbbb49cacdf8cU, 0x385860b09b0a0214U, 0x9fed9585bcf55c35U, 0x3b8df300a1ee83bfU,
  0xbaf7cc26bd104020U, 0x3c983692ba375ce3U, 0x387eece23ca76904U, 0xa192c127bb0605cbU,
  0xbbd4a6cfbaa5f91eU, 0xbbd134c9389272e5U, 0xbc964c83b9e61746U, 0xbbd06c3e20273edfU,
  0x3c79822bb9574bfbU, 0xbaecc3a1bc515161U, 0x2aa5af37bb2f5eebU, 0xbc8462a4bc432677U,
  0x3d258f373b2de51cU, 0xbd252d831c97d6f2U, 0xac46a5bfbc85ad2fU, 0xb49c635dbc33c313U,
  0xbcb45b933b6ec261U, 0xba9b5c29bb1ea21bU, 0x1c6a257dbc5b3e98U, 0xbc5515dc3625977aU,
  0xbc80619a3d363074U, 0xbbf9a99cbcac9318U, 0xbb30ea313c05affaU, 0xbc73c5e5a5b97ea1U,
  0x1abd8191bc101a9eU, 0xbb04d538bc17fccaU, 0xbb9b56cd17a158feU, 0x3d038bed9f8840c2U,
  0xbc82240fbc35eb22U, 0xb60e9a0ebb705f40U, 0xbc305494bd0bf4fcU, 0xbadf09a9bbad20f9U,
  0xbc4d7671bca7c810U, 0xbc818ee9bc824e68U, 0xbbf50da9bcc92d74U, 0x3c01b332bc35cc11U,
  0x368bc5809ec83eb4U, 0x1f453154bc394d14U, 0xa1acd8c2386e144cU, 0xbc8e75351889845cU,
  0x381e3a071f2cf84bU, 0x3708d97339b49365U, 0xbc710c61a2575fb8U, 0x3aaa8e02bcac353fU,
  0xbc5a5ca3bb66ba1dU, 0xbc97472f32e50b92U, 0xbcb80742a13a11f9U, 0xbb0052cc9bd01df0U,
  0x18b56093bd3931ceU, 0xbc8872fb9ee57475U, 0xbc62b8f03d18eb78U, 0x3d2eb294bc93c2bdU,
  0xbb1bce69bc4e219bU, 0xa1efcc483be2d331U, 0x3c33308fbc9f64d1U, 0x3a854f74bbbfb26cU,
  0xbb28c137bc5b4747U, 0xbc4e356422669d7bU, 0x3be36404bc1b4eb6U, 0x3bb5d4a3bbf7d1b8U,
  0xb5df1e6bbc989f4fU, 0xbd293b4fb95dea88U, 0xbd16865bbdbc0cf6U, 0x3ded1e8b21ab1984U,
  0xa99344dbbdf87a53U, 0xa93cca0cbccc1439U, 0x3e0de6713c380e1eU, 0x3daeeb57bbafc56cU,
  0x1d9bfe4abbddb180U, 0x3dbd8e27b82c03c4U, 0xbd43d4a63c988edaU, 0xbc80a162bd68d13dU,
  0x3d0fa4e9bd26949cU, 0xbde4a265a0759288U, 0xa15fce25bcb41c25U, 0xbc50864abcd2e006U,
  0x3b7779eaa2f549aaU, 0x3dca51679bc622a0U, 0x3dbfecdebcbae513U, 0xa96606e53b6fcbd5U,
  0xbaf543ad3bd6297aU, 0x3a23e23e3b5fd281U, 0xbb152c8ebcd70c8eU, 0xbd20eb11bd2da902U,
  0xbc9817d5be047ce1U, 0xbd81733ebcd6eee2U, 0x34f2eed99eaa1158U, 0x207245c9bac885ebU,
  0x9fa2a0e4ba5ac0c8U, 0xbd64226da1f30b47U, 0x340a63eda2b0d49bU, 0xb6a774413d2fe3c8U,
  0xbb8aff812010d4f8U, 0x3b4998c63b51d4ddU, 0xbc4e0ccf3c7a42deU, 0xbd150df7b55efc7cU,
  0xbd93c96c98cd4a1cU, 0x3ad889941d2c4fa3U, 0x9bd39afe3de8af52U, 0xbd4538f71e1e329fU,
  0xbcf94c5e3cf078eaU, 0xbccd7b70bced06dcU, 0x3a31c8ec3dc86e6aU, 0x1a6a78983d13de13U,
  0x3d82856bbd2445bbU, 0xbd8a001abbed20b2U, 0xbdcceef3bd064ac3U, 0xbd0c20f7a243c246U,
  0xbd1f47e4bbf29a6eU, 0x3d393cdabd96f6d0U, 0xa8f87a5ebd5e24cbU, 0xbc90020cbdad8b49U,
  0x3cbced0bbcf74b21U, 0x3bcf1d851b269060U, 0xb92fdd983d40e9ccU, 0x33abbb2ebc31e9c9U,
  0xbca072fc3d9d7d5fU, 0x3d9c8fa8bcc2d043U, 0x215406033d573d48U, 0x3df2ab9f368c64c7U,
  0xbcbbf607bdf3e820U, 0xbb3d00233d1beea7U, 0x3bc56d7f3dfa38b3U, 0xbd7842c1b3b5c944U,
  0x9dacbc34bc462debU, 0x3d21c649bbdbf487U, 0x3a8c28621b7548ecU, 0xbdc7dfbf99eb954eU,
  0xbd9c5997bc878946U, 0x33d1e6dabd4e1929U, 0xbcb08e94bdc4db46U, 0xbc4e37aabc894116U,
  0xbc95cf9fbc5bb558U, 0xbcb2aba83c6b5c45U, 0xbc85a32e3c0dd42bU, 0x3b819bc2bc487d49U,
  0x36ef1038a3016537U, 0x228eda56bcc2dae5U, 0x9fac06c9bbc8312eU, 0x3d0eeec499821b4bU,
  0x373c6d4d1f1d4f85U, 0xb9438d9f3ca047c7U, 0xbd62b3f62262c96aU, 0xbc2d3e8a3d9319a8U,
  0xbc8caacd3b77816dU, 0xbcb9e46136063628U, 0xbcfd8a0f1e0551b7U, 0xbc8e9c80a136ef69U,
  0xa0813b3c3c60a188U, 0xbbdeed14a2c93fceU, 0xbc6e8e143df096cdU, 0x3d791776bc63574aU,
  0xbc67e0753d46cfaeU, 0x21a7c4e33d1e420eU, 0x3d46bf52bcd3f32cU, 0xbd1f8bbebb7da10eU,
  0x3d80efe3bc7148e4U, 0x3d9fea369e2ede80U, 0xbdc71495bb7ac180U, 0x3ca725863dcfa677U,
  0x349de3c5bd29b651U, 0x3c92a0df3be61faeU, 0xbd35c285bcdcc301U, 0x3dd1c8931a1994d9U,
  0x39d3cee1bda4aa85U, 0x3289a7923c11b855U, 0x3c7abcbcbcc175adU, 0xbc161df63b99a2b9U,
  0x9a5438c7bcafe76cU, 0xbd35591b37ee9abaU, 0x3c9f0854bde7723aU, 0x3bc8e9963bad2862U,
  0xbc189c7dbc660750U, 0xbdceb460b2877629U, 0x9af861103c28015aU, 0x3c5a03733bf7fea2U,
  0x3a3f19d11b526c97U, 0xbcd05ab0981f2d1bU, 0x3d601a4b3c4a555bU, 0x36227d0cbd125aa7U,
  0x3b7086f23d5e3e77U, 0x3ba9bfb03b15f791U, 0x3bf264323c63301cU, 0x3c5c55f53c0dcdbfU,
  0x3bf81f1e3d9e2ec6U, 0x3d50cfe03c1cd2f5U, 0xaf44231a9f7a4624U, 0x17af11473c0b2bc9U,
  0x22a4e8743bc3ab18U, 0xbbe01e449f575457U, 0x3658443d9b995a1aU, 0x3a8eb73dbc89dc14U,
  0x3c040d90190cba28U, 0x3c23d138bd566b3bU, 0x3bfa5a47bc131523U, 0x3cb032f13472c9c4U,
  0x3d1ceeeb9e4307c0U, 0x3b9f4da11e5ef6dcU, 0x1c34cd6abd600e4cU, 0x3daad92fa073a0c2U,
  0x3c8b15333d808f98U, 0x3cbd16e63c8a022dU, 0x3b21c1063cfaa530U, 0x21432d39bc930937U,
  0x3bcf26923c9f347cU, 0xbcf7c6ad3b2573a5U, 0x3ca2c2303c5b4770U, 0xbbb9cc32186aa0bbU,
  0xbd6974d43b060673U, 0xbca8eece3d3e4c9fU, 0x338f1d2c3cf71d7bU, 0x3b6afe963d5a9de2U,
  0x3d3b443cbd3a21e5U, 0xbcc82374a1edce21U, 0x37bbf1ea3d337151U, 0x22fd2e4c3a5e2fa6U,
  0xbc3a6c483dc3cb9eU, 0xbcd07d5b3b437bc8U, 0xa081a915bd206c07U, 0x3d31b61e3735a99dU,
  0x3bc2dd70bcf28f82U, 0x3a3bb1993d38424eU, 0x3bcf09f53dc5f3adU, 0xbdce82219abd40f8U,
  0x1d32bffc3a6f0d85U, 0x3c2a50bb3b670c95U, 0xbaffe6fe18aecd26U, 0xbbd3832ca0c174c9U,
  0xbcb926013afa2789U, 0x24e19fa43d944664U, 0x3ba28d493c2a4aa9U, 0x3a9391183b72af66U,
  0x3997c4c03c0cb0cbU, 0x3c3e27403c47339fU, 0x3ae1d30dbdd0027aU, 0xbd0a6f623b934ad2U,
  0xb6b5ce651cb3b09eU, 0x9a030ffc3b9dd39fU, 0x9a367fa439681629U, 0xbbf3b3be1866906eU,
  0xb6bba3941acb5a85U, 0x382803febb8709faU, 0x3d6f602d9be4e525U, 0x3c3827c23dad3219U,
